#ifndef MODELE_SORT_H
#define MODELE_SORT_H

const unsigned char modele_sort[] = {
  0x1c, 0x00, 0x00, 0x00, 0x54, 0x46, 0x4c, 0x33, 0x14, 0x00, 0x20, 0x00, 
  0x1c, 0x00, 0x18, 0x00, 0x14, 0x00, 0x10, 0x00, 0x0c, 0x00, 0x00, 0x00, 
  0x08, 0x00, 0x04, 0x00, 0x14, 0x00, 0x00, 0x00, 0x1c, 0x00, 0x00, 0x00, 
  0x98, 0x00, 0x00, 0x00, 0xf0, 0x00, 0x00, 0x00, 0xdc, 0x1c, 0x00, 0x00, 
  0xec, 0x1c, 0x00, 0x00, 0xec, 0x24, 0x00, 0x00, 0x03, 0x00, 0x00, 0x00, 
  0x01, 0x00, 0x00, 0x00, 0x10, 0x00, 0x00, 0x00, 0x00, 0x00, 0x0a, 0x00, 
  0x10, 0x00, 0x0c, 0x00, 0x08, 0x00, 0x04, 0x00, 0x0a, 0x00, 0x00, 0x00, 
  0x0c, 0x00, 0x00, 0x00, 0x1c, 0x00, 0x00, 0x00, 0x3c, 0x00, 0x00, 0x00, 
  0x0f, 0x00, 0x00, 0x00, 0x73, 0x65, 0x72, 0x76, 0x69, 0x6e, 0x67, 0x5f, 
  0x64, 0x65, 0x66, 0x61, 0x75, 0x6c, 0x74, 0x00, 0x01, 0x00, 0x00, 0x00, 
  0x04, 0x00, 0x00, 0x00, 0x90, 0xff, 0xff, 0xff, 0x0a, 0x00, 0x00, 0x00, 
  0x04, 0x00, 0x00, 0x00, 0x08, 0x00, 0x00, 0x00, 0x6f, 0x75, 0x74, 0x70, 
  0x75, 0x74, 0x5f, 0x30, 0x00, 0x00, 0x00, 0x00, 0x01, 0x00, 0x00, 0x00, 
  0x04, 0x00, 0x00, 0x00, 0x0a, 0xe3, 0xff, 0xff, 0x04, 0x00, 0x00, 0x00, 
  0x0e, 0x00, 0x00, 0x00, 0x6b, 0x65, 0x72, 0x61, 0x73, 0x5f, 0x74, 0x65, 
  0x6e, 0x73, 0x6f, 0x72, 0x5f, 0x36, 0x00, 0x00, 0x02, 0x00, 0x00, 0x00, 
  0x34, 0x00, 0x00, 0x00, 0x04, 0x00, 0x00, 0x00, 0xdc, 0xff, 0xff, 0xff, 
  0x0d, 0x00, 0x00, 0x00, 0x04, 0x00, 0x00, 0x00, 0x13, 0x00, 0x00, 0x00, 
  0x43, 0x4f, 0x4e, 0x56, 0x45, 0x52, 0x53, 0x49, 0x4f, 0x4e, 0x5f, 0x4d, 
  0x45, 0x54, 0x41, 0x44, 0x41, 0x54, 0x41, 0x00, 0x08, 0x00, 0x0c, 0x00, 
  0x08, 0x00, 0x04, 0x00, 0x08, 0x00, 0x00, 0x00, 0x0c, 0x00, 0x00, 0x00, 
  0x04, 0x00, 0x00, 0x00, 0x13, 0x00, 0x00, 0x00, 0x6d, 0x69, 0x6e, 0x5f, 
  0x72, 0x75, 0x6e, 0x74, 0x69, 0x6d, 0x65, 0x5f, 0x76, 0x65, 0x72, 0x73, 
  0x69, 0x6f, 0x6e, 0x00, 0x0e, 0x00, 0x00, 0x00, 0xe8, 0x1b, 0x00, 0x00, 
  0xe0, 0x1b, 0x00, 0x00, 0x50, 0x1b, 0x00, 0x00, 0x00, 0x1b, 0x00, 0x00, 
  0xe4, 0x1a, 0x00, 0x00, 0x14, 0x1a, 0x00, 0x00, 0x04, 0x12, 0x00, 0x00, 
  0xb4, 0x00, 0x00, 0x00, 0xac, 0x00, 0x00, 0x00, 0xa4, 0x00, 0x00, 0x00, 
  0x9c, 0x00, 0x00, 0x00, 0x94, 0x00, 0x00, 0x00, 0x74, 0x00, 0x00, 0x00, 
  0x04, 0x00, 0x00, 0x00, 0xbe, 0xe3, 0xff, 0xff, 0x04, 0x00, 0x00, 0x00, 
  0x60, 0x00, 0x00, 0x00, 0x0c, 0x00, 0x00, 0x00, 0x08, 0x00, 0x0e, 0x00, 
  0x08, 0x00, 0x04, 0x00, 0x08, 0x00, 0x00, 0x00, 0x10, 0x00, 0x00, 0x00, 
  0x28, 0x00, 0x00, 0x00, 0x00, 0x00, 0x06, 0x00, 0x08, 0x00, 0x04, 0x00, 
  0x06, 0x00, 0x00, 0x00, 0x04, 0x00, 0x00, 0x00, 0x01, 0x00, 0x00, 0x00, 
  0xea, 0x03, 0x00, 0x00, 0x0c, 0x00, 0x18, 0x00, 0x14, 0x00, 0x10, 0x00, 
  0x0c, 0x00, 0x04, 0x00, 0x0c, 0x00, 0x00, 0x00, 0x38, 0x05, 0x72, 0xef, 
  0xd7, 0xb5, 0x87, 0x59, 0x02, 0x00, 0x00, 0x00, 0x02, 0x00, 0x00, 0x00, 
  0x04, 0x00, 0x00, 0x00, 0x06, 0x00, 0x00, 0x00, 0x32, 0x2e, 0x32, 0x31, 
  0x2e, 0x30, 0x00, 0x00, 0x2a, 0xe4, 0xff, 0xff, 0x04, 0x00, 0x00, 0x00, 
  0x10, 0x00, 0x00, 0x00, 0x32, 0x2e, 0x31, 0x37, 0x2e, 0x30, 0x00, 0x00, 
  0x00, 0x00, 0x00, 0x00, 0x00, 0x00, 0x00, 0x00, 0xf8, 0xdc, 0xff, 0xff, 
  0xfc, 0xdc, 0xff, 0xff, 0x00, 0xdd, 0xff, 0xff, 0x04, 0xdd, 0xff, 0xff, 
  0x56, 0xe4, 0xff, 0xff, 0x04, 0x00, 0x00, 0x00, 0x40, 0x11, 0x00, 0x00, 
  0xe4, 0xbb, 0x48, 0x30, 0xfc, 0x27, 0x1b, 0xac, 0xc6, 0x44, 0x2c, 0x79, 
  0x63, 0x2d, 0xc8, 0xae, 0x60, 0x03, 0x65, 0x54, 0x28, 0x2c, 0xbe, 0xc9, 
  0x3b, 0xfa, 0x43, 0xc0, 0xca, 0xcb, 0xed, 0x1f, 0xa9, 0x56, 0xda, 0x1b, 
  0x06, 0xe2, 0x3a, 0xa0, 0x9a, 0xc1, 0x52, 0x76, 0x07, 0xb9, 0xf5, 0x03, 
  0xd2, 0x4f, 0x2f, 0x30, 0xdc, 0x9e, 0xb5, 0x51, 0xdf, 0xac, 0x41, 0x96, 
  0xa0, 0x35, 0x3b, 0x26, 0xfa, 0xee, 0xa6, 0x31, 0x4c, 0xe0, 0x5c, 0x9d, 
  0xdd, 0x1b, 0xad, 0xec, 0x2f, 0x59, 0xcb, 0x4c, 0x0c, 0xdb, 0xb8, 0xcc, 
  0xc6, 0x5c, 0x04, 0xbc, 0x33, 0xce, 0xeb, 0xa1, 0xbe, 0xd1, 0xfd, 0x31, 
  0xe1, 0xa2, 0xfb, 0x56, 0xc3, 0xbd, 0x21, 0x2d, 0xe2, 0x3d, 0xc3, 0xe1, 
  0xb0, 0xe8, 0x4e, 0x0e, 0xfb, 0x5a, 0x9f, 0x21, 0xef, 0x4c, 0x17, 0x7f, 
  0xc9, 0x13, 0x68, 0xdb, 0xe4, 0xdf, 0xbc, 0x46, 0x73, 0xf9, 0x15, 0x49, 
  0xef, 0x3f, 0xae, 0x67, 0xd8, 0x1a, 0x5b, 0xf3, 0x24, 0xc3, 0x3c, 0x59, 
  0x43, 0x06, 0x4f, 0x35, 0x53, 0x08, 0x31, 0x66, 0xd8, 0x3b, 0xf1, 0x31, 
  0x30, 0xcb, 0xb6, 0x35, 0xac, 0xc3, 0x34, 0x81, 0x00, 0x76, 0xe2, 0x79, 
  0x67, 0x0f, 0x8c, 0xf1, 0x34, 0xf6, 0x6e, 0xb2, 0xf7, 0x57, 0x4c, 0x29, 
  0x13, 0xd8, 0x3f, 0xb2, 0x02, 0xf9, 0xed, 0x02, 0xa6, 0xff, 0x15, 0xc4, 
  0xb8, 0x1a, 0x26, 0x34, 0x1e, 0x22, 0x86, 0x9a, 0xea, 0xdd, 0x99, 0x20, 
  0x14, 0x2b, 0x88, 0xd3, 0x33, 0xda, 0xa5, 0x31, 0xe1, 0x17, 0x18, 0xa5, 
  0x0a, 0xb2, 0x10, 0xfa, 0xde, 0x26, 0xe0, 0x0a, 0x48, 0x3d, 0x0b, 0x05, 
  0x0a, 0x02, 0x30, 0x30, 0x94, 0x27, 0x3f, 0x2c, 0x96, 0xec, 0xbb, 0xde, 
  0x20, 0x13, 0xff, 0x3d, 0x38, 0xd3, 0x00, 0xd5, 0xf1, 0xb7, 0x01, 0xbe, 
  0xae, 0x04, 0x3b, 0x3a, 0xc3, 0xd4, 0x22, 0x62, 0x5b, 0x1d, 0x94, 0xa5, 
  0x6b, 0x2f, 0x58, 0x22, 0xbc, 0x42, 0xf8, 0x3f, 0x2b, 0x18, 0x3a, 0xd3, 
  0x6e, 0x6e, 0x3e, 0x34, 0x2a, 0xd5, 0x49, 0xc2, 0x18, 0xef, 0xa4, 0x83, 
  0xcc, 0x34, 0x39, 0xef, 0xb9, 0x90, 0x23, 0xa6, 0x15, 0x1a, 0x21, 0x1b, 
  0xea, 0x9c, 0xc4, 0x38, 0x10, 0xf1, 0xdf, 0x45, 0xe1, 0xbd, 0x75, 0xe3, 
  0x0d, 0xe3, 0x2e, 0x7f, 0x2a, 0x61, 0xf7, 0xef, 0x56, 0xad, 0xca, 0x50, 
  0xde, 0x2e, 0x5c, 0xa6, 0x15, 0xd4, 0x77, 0x19, 0xc6, 0xbc, 0xf6, 0xf4, 
  0x73, 0xbf, 0xc1, 0xbe, 0x29, 0xfd, 0x9a, 0x02, 0x5a, 0xaf, 0x3a, 0xea, 
  0x15, 0x3a, 0x53, 0xc7, 0x67, 0x0d, 0x9a, 0x4f, 0x91, 0x55, 0xe5, 0x93, 
  0x29, 0x0f, 0x2a, 0xb6, 0x6c, 0x23, 0x55, 0xf6, 0xa8, 0x4a, 0x24, 0x63, 
  0x6f, 0x9e, 0x1b, 0x67, 0x34, 0x49, 0x49, 0xb7, 0x0d, 0xf7, 0x9e, 0xb0, 
  0x98, 0xcf, 0xa2, 0x6e, 0x41, 0x5e, 0xe7, 0x2f, 0x4d, 0xb5, 0xb4, 0xff, 
  0xf6, 0xed, 0x1e, 0x32, 0x72, 0xbb, 0x47, 0x4b, 0x5f, 0x44, 0x62, 0x3a, 
  0x4f, 0xe6, 0xe6, 0x6c, 0x39, 0xb2, 0xf3, 0x3f, 0x03, 0x92, 0x2a, 0xfd, 
  0xb7, 0x4b, 0x64, 0xea, 0xe1, 0x93, 0xa6, 0x05, 0xa9, 0xc6, 0xc3, 0xaf, 
  0x97, 0x2e, 0x2d, 0xa9, 0x5a, 0x64, 0xcc, 0x32, 0x3a, 0x49, 0xda, 0xdc, 
  0x18, 0xf1, 0x34, 0x68, 0xdd, 0x94, 0x3c, 0xd3, 0xfb, 0x4d, 0x55, 0x4c, 
  0xf4, 0x2a, 0x16, 0x2a, 0xdc, 0xe4, 0x97, 0x16, 0x15, 0x11, 0x03, 0x3b, 
  0x22, 0xf9, 0x24, 0x50, 0xc2, 0x35, 0x0c, 0xff, 0xeb, 0x70, 0xba, 0x6e, 
  0xd0, 0x5c, 0xca, 0xc0, 0xed, 0x10, 0x03, 0x56, 0x22, 0xf9, 0xf0, 0xc5, 
  0xda, 0x4a, 0xbf, 0x2a, 0x0a, 0x31, 0x51, 0x30, 0x4a, 0x18, 0xc3, 0xb0, 
  0x01, 0xca, 0x7f, 0xe6, 0xec, 0x3a, 0xab, 0x21, 0x0f, 0x53, 0x5f, 0xc6, 
  0x4c, 0x11, 0x42, 0x23, 0xf8, 0x61, 0xef, 0x6d, 0x22, 0x6c, 0x2f, 0x55, 
  0xda, 0x6c, 0x50, 0xc6, 0xea, 0xc6, 0xf9, 0xf3, 0xc1, 0x44, 0xe9, 0xc2, 
  0x4c, 0xab, 0xcb, 0xd2, 0xf1, 0xb6, 0xf1, 0xb1, 0xcb, 0x2a, 0xe9, 0xd7, 
  0xcc, 0x50, 0xd4, 0xf5, 0xd6, 0x03, 0x12, 0x9b, 0x5c, 0x0e, 0x26, 0xcc, 
  0x18, 0xb3, 0x26, 0x5d, 0xba, 0x26, 0x33, 0x2f, 0x26, 0x6e, 0x74, 0x2b, 
  0xdb, 0x17, 0x46, 0x54, 0x54, 0xa2, 0x2e, 0x57, 0xeb, 0xe9, 0xc6, 0xdf, 
  0xe5, 0xda, 0x61, 0x37, 0x2d, 0xdf, 0x01, 0x20, 0xf9, 0x45, 0xae, 0x2d, 
  0xd6, 0x0f, 0x35, 0x08, 0x28, 0x18, 0x30, 0x11, 0x71, 0x4c, 0xc6, 0x57, 
  0xbc, 0xbf, 0x5c, 0x30, 0x34, 0xa6, 0xf3, 0x98, 0x38, 0xd9, 0x63, 0x7f, 
  0x8f, 0x8b, 0x12, 0x31, 0x46, 0x4b, 0xed, 0x4a, 0xd2, 0x5a, 0x42, 0xc7, 
  0x0b, 0xa3, 0x5d, 0x2b, 0x57, 0xb1, 0xea, 0x00, 0x03, 0x3b, 0x0f, 0xfa, 
  0x50, 0x21, 0x01, 0x0d, 0x8f, 0x51, 0x21, 0xa3, 0x65, 0x41, 0xee, 0xc6, 
  0xdb, 0xeb, 0xe5, 0x2f, 0x27, 0xc2, 0xe3, 0x20, 0xbd, 0x3e, 0x66, 0x36, 
  0x3f, 0x5b, 0xd1, 0x8e, 0x11, 0x36, 0x62, 0x4b, 0xaf, 0x08, 0x1f, 0x91, 
  0xbe, 0x8a, 0x40, 0x4f, 0x22, 0xd0, 0xcf, 0x2e, 0x22, 0x23, 0x3c, 0xac, 
  0x34, 0x20, 0xca, 0xd5, 0x21, 0xd9, 0x1e, 0x36, 0x34, 0xe3, 0x1d, 0xd7, 
  0xae, 0x10, 0xec, 0x25, 0x68, 0xcf, 0x3e, 0x26, 0xb3, 0xf4, 0x28, 0x44, 
  0xae, 0x5c, 0x3f, 0x1f, 0xe4, 0xe0, 0xb1, 0xd3, 0x5b, 0x38, 0x40, 0xa3, 
  0x14, 0xca, 0xf0, 0x0d, 0x02, 0xb6, 0xb8, 0xac, 0x53, 0xbe, 0x54, 0xc9, 
  0x21, 0x20, 0xf4, 0x5f, 0xf2, 0x2c, 0x01, 0xb4, 0xac, 0x0a, 0x06, 0x3c, 
  0x5f, 0xe8, 0xf2, 0xe4, 0x4f, 0x93, 0x40, 0xba, 0xae, 0xf3, 0x07, 0x3e, 
  0xd8, 0x5f, 0xd0, 0x05, 0x63, 0xca, 0x09, 0x03, 0xfe, 0x15, 0x24, 0x69, 
  0xe9, 0xca, 0x6a, 0xc7, 0x4e, 0x3d, 0x15, 0x3c, 0xf8, 0x67, 0xd1, 0x4c, 
  0x0a, 0xb7, 0x5f, 0x2e, 0x7f, 0xcb, 0x5f, 0x1e, 0x4d, 0x42, 0x53, 0x6e, 
  0x58, 0x22, 0xe0, 0xb1, 0x4e, 0xc4, 0x1b, 0xc4, 0x10, 0x17, 0x75, 0x09, 
  0x33, 0xa8, 0xc4, 0x6d, 0xb0, 0x53, 0x9f, 0xb5, 0x0d, 0x52, 0xc8, 0x2c, 
  0x43, 0x22, 0xe2, 0x5b, 0x0c, 0x9a, 0x48, 0xc1, 0x01, 0xfe, 0x2e, 0xf1, 
  0x0f, 0x1c, 0xeb, 0xb1, 0xb2, 0x5f, 0xb9, 0xad, 0x2b, 0xb3, 0xc8, 0x41, 
  0xe6, 0x44, 0xd4, 0x3a, 0x84, 0xcd, 0xae, 0xfd, 0x94, 0x1d, 0x23, 0x25, 
  0x10, 0xfc, 0x40, 0x2c, 0xf4, 0x0a, 0x1d, 0xac, 0xf7, 0xe4, 0xfa, 0xf7, 
  0xf5, 0xd1, 0x70, 0x51, 0x6c, 0x26, 0x4a, 0x0f, 0xbf, 0x01, 0x5e, 0x49, 
  0xdd, 0x28, 0xc4, 0x3b, 0xa5, 0xbf, 0xdd, 0x4d, 0xb2, 0x17, 0xb0, 0x33, 
  0xdf, 0x04, 0xdd, 0x65, 0x4a, 0xc8, 0x9f, 0x2c, 0xd4, 0xe6, 0xdf, 0x34, 
  0xa0, 0xe2, 0xe0, 0x53, 0xe2, 0x41, 0x9c, 0xd4, 0x51, 0x7f, 0xdc, 0xdb, 
  0x47, 0x21, 0x61, 0xb6, 0xa6, 0x48, 0xb1, 0x9f, 0x19, 0xc0, 0xec, 0xcd, 
  0xa8, 0xa4, 0xfa, 0xe1, 0xce, 0x9f, 0xe4, 0xcf, 0x76, 0x41, 0xb9, 0x96, 
  0xb5, 0xa8, 0x39, 0x89, 0xfb, 0x14, 0xf3, 0x32, 0x38, 0xf1, 0xd8, 0xd5, 
  0xb2, 0xae, 0x16, 0xf4, 0xca, 0x4d, 0xd2, 0x51, 0x61, 0x39, 0x49, 0x39, 
  0x2c, 0x1d, 0xeb, 0xe4, 0xe6, 0xde, 0x67, 0xb2, 0x25, 0xc8, 0x4c, 0x39, 
  0xea, 0x7f, 0x3d, 0xe7, 0xe6, 0xc9, 0xc6, 0x15, 0xc5, 0x72, 0x09, 0x19, 
  0x4d, 0x3f, 0x08, 0x9a, 0x2a, 0x41, 0x2b, 0xbc, 0xfa, 0x62, 0x6b, 0xab, 
  0x41, 0xdf, 0xb3, 0xe5, 0x9e, 0x67, 0xc8, 0xc3, 0x2e, 0x44, 0xb0, 0xd7, 
  0x4e, 0x28, 0x09, 0xc4, 0x1a, 0xfa, 0x36, 0x49, 0x05, 0xa7, 0xee, 0x01, 
  0x8f, 0xb8, 0x4e, 0xa1, 0xae, 0xd2, 0x1c, 0xf0, 0xc1, 0xdd, 0x09, 0xae, 
  0xf1, 0x31, 0x41, 0xa4, 0xe5, 0x13, 0x19, 0xc0, 0xa0, 0x9b, 0x4f, 0x0b, 
  0xb7, 0x2e, 0xab, 0xec, 0xc2, 0x9e, 0xb1, 0x98, 0xa5, 0xca, 0x13, 0xd2, 
  0x24, 0x8d, 0xda, 0xbd, 0x22, 0x04, 0x1d, 0x8e, 0x57, 0x28, 0xbb, 0x0a, 
  0xf0, 0x25, 0xd0, 0x5c, 0x47, 0xc9, 0x3d, 0x38, 0xbb, 0xb0, 0xf0, 0xca, 
  0x31, 0x7b, 0x65, 0x95, 0x1b, 0x10, 0xb1, 0x05, 0x32, 0x47, 0xd2, 0xee, 
  0xf4, 0xf8, 0x9b, 0x93, 0x4d, 0xae, 0x38, 0x0f, 0xed, 0x4c, 0x44, 0xea, 
  0xac, 0x2a, 0x3a, 0x4d, 0xda, 0x8b, 0xfe, 0x53, 0xcc, 0xab, 0x8b, 0x60, 
  0xb9, 0xad, 0xe1, 0x45, 0x2d, 0xba, 0xba, 0x03, 0x2e, 0x02, 0x54, 0x00, 
  0x1d, 0x26, 0xd4, 0x4e, 0xd9, 0x53, 0x36, 0x01, 0xe9, 0x48, 0xb3, 0x4f, 
  0x35, 0x1f, 0xca, 0xb4, 0x59, 0x22, 0xf7, 0x30, 0x4c, 0xaa, 0x18, 0xab, 
  0x12, 0xd8, 0xa8, 0x9f, 0xf7, 0xdd, 0x35, 0xd7, 0x1a, 0x81, 0x17, 0x2c, 
  0xf6, 0xc9, 0x17, 0xef, 0x10, 0xda, 0x02, 0x2c, 0x38, 0x52, 0x15, 0x8f, 
  0xba, 0xcf, 0x02, 0x2c, 0x83, 0xd7, 0xaf, 0xba, 0xf6, 0x25, 0xb8, 0xc5, 
  0x4f, 0xd9, 0x56, 0xc3, 0x4a, 0xc4, 0x4f, 0x1e, 0x2d, 0x35, 0x54, 0x98, 
  0x82, 0x49, 0xde, 0xe2, 0x92, 0x58, 0x48, 0xcd, 0x12, 0xcc, 0xaa, 0x4d, 
  0x12, 0x1b, 0x6b, 0x63, 0x0f, 0x50, 0xd0, 0xfa, 0x78, 0xbc, 0x9a, 0x47, 
  0xcc, 0x2f, 0xdb, 0xc2, 0x53, 0xdb, 0x53, 0xb0, 0x2b, 0xe3, 0xa3, 0x70, 
  0xa5, 0x03, 0xb1, 0x50, 0xd6, 0xcf, 0x5e, 0xdf, 0xf6, 0x00, 0x0f, 0xe3, 
  0x8e, 0x3e, 0xba, 0x1b, 0xf9, 0xfa, 0xd8, 0x56, 0xb2, 0xc3, 0x23, 0x43, 
  0xac, 0x01, 0x51, 0xa0, 0x67, 0x2d, 0x5d, 0xbb, 0x26, 0xec, 0x17, 0xa2, 
  0xf6, 0xc8, 0xd2, 0x54, 0xe7, 0xe8, 0x04, 0xaa, 0x55, 0x0a, 0xee, 0x3a, 
  0x56, 0x62, 0x96, 0xdd, 0xcf, 0xde, 0x66, 0xe5, 0xfc, 0x62, 0xc4, 0xe6, 
  0x6e, 0xbd, 0x1f, 0x86, 0x8c, 0xc6, 0xe1, 0x6e, 0x5f, 0x32, 0x54, 0x4c, 
  0x1c, 0x0f, 0x9e, 0x68, 0x62, 0xf4, 0x15, 0xb8, 0x86, 0x38, 0xb5, 0x23, 
  0x00, 0x13, 0x0e, 0x0a, 0x79, 0x02, 0xe1, 0x24, 0xce, 0xb0, 0x83, 0xc8, 
  0x5e, 0x11, 0xaf, 0xbe, 0x67, 0x3e, 0xb0, 0x2a, 0x56, 0xd2, 0xd5, 0x32, 
  0xf2, 0x1e, 0xbd, 0x7f, 0x0c, 0xca, 0xfe, 0x60, 0xa5, 0xda, 0xc4, 0xfb, 
  0x23, 0xd1, 0xfd, 0xfd, 0x34, 0x50, 0x69, 0x29, 0x77, 0x55, 0x14, 0x4a, 
  0xae, 0xb9, 0xc8, 0x27, 0x0d, 0xed, 0x1c, 0x23, 0x0f, 0x07, 0xb2, 0x32, 
  0x2d, 0xc6, 0xba, 0x36, 0xa1, 0xa5, 0x0d, 0x36, 0x9a, 0x55, 0xe8, 0x1e, 
  0xc8, 0x16, 0x3c, 0x3a, 0xe1, 0xc3, 0x97, 0xf3, 0x0b, 0xfe, 0x9b, 0x8f, 
  0x21, 0x40, 0xab, 0x4a, 0x95, 0x32, 0xe0, 0x40, 0xaf, 0x0c, 0xa7, 0x46, 
  0xc5, 0x49, 0x46, 0x55, 0x37, 0x34, 0x18, 0x98, 0xe8, 0x54, 0x60, 0x1e, 
  0xf2, 0x0c, 0x11, 0xad, 0x1c, 0x10, 0xfb, 0x42, 0xa7, 0xf9, 0xf2, 0x7f, 
  0xb6, 0x10, 0x46, 0x2e, 0x00, 0xfc, 0x41, 0x9c, 0xf2, 0x55, 0x9c, 0x32, 
  0x02, 0x30, 0xfb, 0x13, 0xae, 0x9c, 0x0d, 0xa5, 0x48, 0x66, 0x51, 0xd3, 
  0xf5, 0xc6, 0xcb, 0x45, 0xaa, 0x87, 0x3f, 0x54, 0x50, 0x18, 0xcf, 0xa7, 
  0x30, 0xd5, 0x2a, 0x24, 0xda, 0x4b, 0xc8, 0xa0, 0xca, 0xea, 0xa8, 0xdd, 
  0x4a, 0xf1, 0xbf, 0x2b, 0x16, 0xba, 0x36, 0xbd, 0x35, 0x4f, 0xef, 0xcc, 
  0x02, 0xb4, 0x19, 0xc2, 0x09, 0x03, 0x87, 0x2c, 0x39, 0x41, 0x09, 0x3b, 
  0x39, 0x25, 0x95, 0xa2, 0x23, 0x23, 0x46, 0x28, 0x02, 0x4d, 0x49, 0x5b, 
  0x25, 0x71, 0xfb, 0x39, 0x4a, 0xcb, 0x33, 0xf9, 0xc3, 0x0f, 0x81, 0x2b, 
  0xc9, 0xb2, 0xc1, 0x50, 0xcc, 0xf7, 0xce, 0xed, 0xb6, 0xa0, 0x99, 0xaa, 
  0x37, 0x14, 0xe5, 0x47, 0x9b, 0x90, 0x3e, 0x4d, 0x62, 0x42, 0xee, 0x43, 
  0x8c, 0xda, 0x3a, 0xe4, 0xa8, 0xbb, 0x09, 0x07, 0xba, 0xc6, 0xd9, 0x36, 
  0x58, 0x21, 0x45, 0xb6, 0x19, 0x5b, 0xff, 0xc6, 0x26, 0xcf, 0x25, 0xd5, 
  0x1a, 0xa1, 0x51, 0xf0, 0xde, 0x09, 0x3e, 0x15, 0xda, 0xba, 0x97, 0xea, 
  0x01, 0x36, 0x42, 0xea, 0x35, 0x2c, 0x20, 0xe7, 0x72, 0x12, 0xf3, 0x41, 
  0xd6, 0x4a, 0xab, 0x2f, 0xb9, 0xe3, 0xc2, 0xcd, 0xe9, 0xcf, 0x0c, 0x13, 
  0xd6, 0x39, 0x39, 0x57, 0x64, 0x9b, 0xc6, 0x10, 0x40, 0xe8, 0xdc, 0x15, 
  0x2e, 0xd8, 0x84, 0x50, 0x21, 0xf6, 0xf3, 0xe3, 0xe8, 0x31, 0xa0, 0xbc, 
  0xb2, 0xa2, 0x19, 0x22, 0x05, 0x24, 0x65, 0x92, 0x9d, 0xdd, 0x2f, 0xb8, 
  0x08, 0xf1, 0x1e, 0xf4, 0xb8, 0x53, 0x0c, 0x2b, 0x41, 0x4d, 0xd3, 0xf2, 
  0x15, 0x29, 0xc4, 0x40, 0xdd, 0x27, 0xd5, 0x99, 0xfa, 0x09, 0x2e, 0x4c, 
  0x5a, 0x42, 0x9f, 0xdf, 0x1d, 0x24, 0xcc, 0x60, 0x5b, 0x95, 0x4b, 0xd6, 
  0x64, 0xbd, 0xbe, 0x22, 0x6c, 0xcf, 0x57, 0x28, 0x39, 0x65, 0x24, 0xdc, 
  0xd5, 0xf2, 0x05, 0xfb, 0xe0, 0x6f, 0x57, 0xa8, 0xb2, 0x78, 0x34, 0x47, 
  0xe1, 0xae, 0xfa, 0x28, 0x5e, 0x9b, 0x2c, 0xf6, 0xb5, 0x70, 0x5f, 0x5e, 
  0xac, 0x98, 0xea, 0x3a, 0x60, 0x11, 0xff, 0x96, 0x56, 0xce, 0x07, 0x53, 
  0x6f, 0x56, 0x33, 0xe5, 0x7a, 0xfb, 0xd0, 0x72, 0x4c, 0xdc, 0x30, 0xfc, 
  0x04, 0x55, 0xec, 0x11, 0x03, 0xb4, 0x01, 0x09, 0x28, 0xf8, 0xc7, 0xe3, 
  0x06, 0x81, 0xbf, 0x4d, 0x6c, 0x91, 0x96, 0x2c, 0x59, 0xf0, 0x45, 0x14, 
  0x66, 0x99, 0xca, 0xa4, 0x2f, 0xd2, 0xda, 0x79, 0xed, 0xee, 0xe5, 0x85, 
  0xe3, 0x96, 0xd3, 0x48, 0x97, 0x0c, 0xdb, 0xcb, 0xb9, 0x53, 0xc7, 0x08, 
  0xfe, 0x37, 0xd2, 0x25, 0x5c, 0xe0, 0xcc, 0xba, 0xff, 0xa3, 0x9f, 0xdf, 
  0x81, 0x7c, 0x57, 0x28, 0xbc, 0x37, 0x09, 0x21, 0x15, 0x14, 0xf2, 0x59, 
  0x95, 0xea, 0xf7, 0x0c, 0xb8, 0xfc, 0x3c, 0x94, 0xbe, 0x1f, 0xe3, 0xed, 
  0x48, 0xbc, 0xad, 0xc9, 0xce, 0xc4, 0xc9, 0xfe, 0x01, 0x68, 0x14, 0x3b, 
  0x1e, 0x08, 0x6a, 0xcf, 0xde, 0xa1, 0xbc, 0x00, 0x24, 0x45, 0x5f, 0xb5, 
  0x6b, 0xe5, 0x66, 0xc2, 0x07, 0xf4, 0xb9, 0x56, 0xf3, 0x18, 0x1e, 0xc8, 
  0xb4, 0xcd, 0x17, 0xc2, 0x24, 0xf5, 0xb7, 0xd5, 0xe5, 0x26, 0x7a, 0xeb, 
  0xdc, 0x38, 0x31, 0xe6, 0x37, 0x1d, 0x21, 0x21, 0xe6, 0x26, 0x39, 0xbe, 
  0x60, 0x95, 0xc6, 0x00, 0x15, 0x4e, 0xdb, 0x20, 0xcb, 0x2a, 0x7f, 0x6e, 
  0x4d, 0x0c, 0x15, 0xf9, 0x4e, 0x69, 0x6a, 0xce, 0x51, 0x60, 0x18, 0xc8, 
  0x02, 0x99, 0xe1, 0x1a, 0xdb, 0xad, 0x1d, 0xd1, 0xe3, 0xf7, 0xc8, 0x9a, 
  0xf5, 0x1f, 0xfb, 0x9d, 0xa6, 0xcb, 0x3b, 0x00, 0xe5, 0xdc, 0xd7, 0x48, 
  0x03, 0x4e, 0xc3, 0x07, 0x2a, 0x3a, 0xb3, 0xcd, 0xd5, 0xd5, 0xcb, 0xbf, 
  0x47, 0xfe, 0x8b, 0xe2, 0x58, 0x14, 0x03, 0x22, 0x01, 0x33, 0xc2, 0x44, 
  0x18, 0xda, 0x49, 0x3e, 0x1c, 0xc5, 0xc3, 0x1e, 0x9a, 0xdf, 0x48, 0x8f, 
  0x0c, 0x3d, 0xc0, 0x42, 0x2f, 0x2e, 0xee, 0xc1, 0x49, 0xaa, 0x18, 0xee, 
  0x9b, 0x98, 0x3d, 0x01, 0xbc, 0xe9, 0xf4, 0x41, 0xe0, 0xc2, 0x2a, 0xcf, 
  0x82, 0xd5, 0xa0, 0xdf, 0x9b, 0xd0, 0x05, 0xbe, 0x1f, 0xf4, 0x15, 0x2e, 
  0x47, 0xb2, 0xd4, 0xdf, 0x2a, 0x81, 0x45, 0x91, 0xee, 0x06, 0xcf, 0xf3, 
  0x26, 0x2d, 0x14, 0xbe, 0x87, 0x98, 0xba, 0xc5, 0xa5, 0x33, 0xe5, 0xea, 
  0xf5, 0xd5, 0xc1, 0x43, 0xb5, 0x2e, 0xd8, 0xda, 0xde, 0x98, 0x9b, 0x95, 
  0x0b, 0x47, 0x17, 0xd6, 0xde, 0xbf, 0xa1, 0xf0, 0x89, 0x2d, 0xdf, 0x01, 
  0x41, 0x6a, 0xfe, 0x9b, 0x92, 0x59, 0x35, 0x23, 0x57, 0x4f, 0xfc, 0x29, 
  0xaa, 0xfe, 0x5d, 0x50, 0x29, 0xcc, 0xd8, 0xbe, 0xda, 0x7d, 0x2c, 0x04, 
  0x04, 0xf4, 0x82, 0x50, 0x7a, 0x7b, 0x65, 0xd5, 0xbf, 0xce, 0x1b, 0xb5, 
  0x2e, 0x91, 0x00, 0x5f, 0xb5, 0x93, 0xfb, 0x5e, 0x81, 0xb1, 0xc4, 0x48, 
  0x86, 0xce, 0x50, 0x9e, 0x98, 0x10, 0xa5, 0x3d, 0xdd, 0x99, 0xa6, 0xed, 
  0xde, 0xd4, 0x2b, 0xac, 0x37, 0xf4, 0xbb, 0xe2, 0xca, 0xc5, 0xd7, 0x0b, 
  0xd7, 0x15, 0x64, 0x34, 0xcd, 0x6a, 0x18, 0xd6, 0x65, 0x3d, 0x8e, 0x0c, 
  0x00, 0xe4, 0xa3, 0x04, 0xa3, 0x67, 0x62, 0x48, 0xf0, 0xd9, 0x97, 0x42, 
  0xf4, 0xf3, 0xec, 0x5a, 0xda, 0x23, 0xb2, 0xc9, 0x0d, 0x33, 0x4e, 0x13, 
  0x57, 0x24, 0x6c, 0x40, 0x33, 0xa2, 0xfc, 0x24, 0xb3, 0x25, 0x91, 0x47, 
  0xee, 0x26, 0x1b, 0x99, 0x2a, 0x16, 0x05, 0xea, 0x44, 0xda, 0xfb, 0x66, 
  0x07, 0x5c, 0xfc, 0x5b, 0x6d, 0x60, 0x64, 0x5f, 0xe2, 0x9d, 0x60, 0xc1, 
  0x89, 0x50, 0x70, 0xf0, 0xcf, 0x2b, 0x72, 0xc7, 0x63, 0xbc, 0xe8, 0x58, 
  0x52, 0xa2, 0xbe, 0xd7, 0xf3, 0xee, 0x23, 0x2b, 0xfb, 0x1e, 0x0a, 0xf6, 
  0x2a, 0xd6, 0x7a, 0xd8, 0xd6, 0xec, 0x03, 0xad, 0x6f, 0x36, 0xab, 0x5b, 
  0xe9, 0xb2, 0xe4, 0xd9, 0x94, 0x20, 0x3b, 0xd8, 0x30, 0x45, 0x4d, 0xe2, 
  0x43, 0xbf, 0xe6, 0x40, 0x59, 0xb4, 0xf7, 0x35, 0x1f, 0x33, 0xe3, 0x0b, 
  0x1d, 0xc0, 0x09, 0xc4, 0x62, 0x57, 0xeb, 0x56, 0xe6, 0xba, 0x6d, 0x7f, 
  0x27, 0x1a, 0xbe, 0x05, 0x12, 0xc1, 0x5e, 0x29, 0x3e, 0x08, 0xdd, 0xd2, 
  0xdd, 0x57, 0xd0, 0x48, 0x20, 0xf7, 0xec, 0x43, 0xcb, 0xf5, 0xdb, 0x11, 
  0xb6, 0x3c, 0x4d, 0xa3, 0x35, 0xd6, 0x5d, 0xcf, 0x55, 0xf2, 0x48, 0xd1, 
  0xe9, 0x47, 0x31, 0xef, 0x9e, 0xb8, 0x9d, 0xd9, 0x13, 0x60, 0x22, 0xf0, 
  0xa8, 0x74, 0x30, 0x0c, 0xee, 0xc9, 0xb6, 0x3c, 0x0d, 0x03, 0x93, 0x94, 
  0x31, 0x1a, 0x2d, 0xfd, 0xbd, 0xe5, 0x05, 0xe7, 0xd5, 0x61, 0xa5, 0x14, 
  0xd2, 0x0b, 0x4b, 0xaf, 0xae, 0xfb, 0x00, 0x0a, 0xe9, 0x50, 0xfc, 0xad, 
  0xa8, 0x03, 0x2b, 0x0f, 0xc1, 0x31, 0xf9, 0xbb, 0x08, 0x26, 0x2e, 0xbb, 
  0x4d, 0xcf, 0x52, 0x31, 0xef, 0x4e, 0xb2, 0xe2, 0x5b, 0x51, 0x43, 0x1c, 
  0xe6, 0x39, 0x50, 0xbe, 0x03, 0xad, 0xc6, 0x1b, 0xb0, 0xfb, 0x34, 0xf2, 
  0x00, 0x36, 0xa2, 0x17, 0x39, 0xdc, 0x96, 0x30, 0xe4, 0x4a, 0x9a, 0x25, 
  0xc8, 0xac, 0x1a, 0x49, 0x88, 0xb1, 0xf3, 0xdd, 0x28, 0xf1, 0x43, 0xdb, 
  0x20, 0x42, 0xfa, 0x7f, 0xf2, 0x33, 0x15, 0x65, 0xe6, 0xa6, 0x16, 0xcd, 
  0x1a, 0xc5, 0xdb, 0xfd, 0xbf, 0xb2, 0x9b, 0x2a, 0xa8, 0xa8, 0xf6, 0x4e, 
  0x33, 0xf3, 0x67, 0x10, 0xab, 0xd8, 0x20, 0xbf, 0xb5, 0xbe, 0xe8, 0x28, 
  0x1b, 0x1f, 0x5f, 0xe8, 0x83, 0xa8, 0x1e, 0xc1, 0x63, 0x86, 0xe0, 0xb6, 
  0xcb, 0xc3, 0xf4, 0xa1, 0xed, 0xfb, 0x2c, 0xbe, 0xc4, 0x63, 0x4e, 0x7f, 
  0x54, 0x4c, 0xe2, 0x0c, 0x6b, 0xdf, 0xc0, 0xb2, 0xe4, 0xcf, 0xb0, 0x5d, 
  0x9f, 0x4e, 0xd9, 0xf7, 0x73, 0x13, 0x30, 0x37, 0x28, 0xf5, 0x6a, 0x68, 
  0xcd, 0x1f, 0xd5, 0x08, 0x4d, 0xd7, 0xf9, 0xd5, 0x9a, 0xd9, 0x0c, 0x0e, 
  0xcf, 0x2a, 0x91, 0x0f, 0x09, 0xdd, 0x1e, 0x3d, 0x45, 0xcf, 0x53, 0x28, 
  0xa9, 0x18, 0x8f, 0x1a, 0xfc, 0x04, 0x3b, 0x8a, 0x90, 0x8f, 0xac, 0x62, 
  0xe6, 0xa0, 0x38, 0xf0, 0x1e, 0x34, 0x56, 0x10, 0x34, 0x3d, 0x3d, 0x50, 
  0xd1, 0x50, 0x9c, 0x4e, 0xad, 0xc5, 0xeb, 0xf6, 0x2d, 0x87, 0xc7, 0x1e, 
  0xdf, 0x2c, 0xf1, 0xcf, 0xe9, 0xbc, 0x42, 0xa6, 0xb2, 0x4c, 0xed, 0x33, 
  0xdd, 0xa8, 0xaf, 0x31, 0x36, 0xc2, 0x45, 0x2b, 0xc4, 0x22, 0xd7, 0xd7, 
  0x7c, 0xed, 0x2a, 0x0c, 0x39, 0x2f, 0xc9, 0xa8, 0x36, 0xab, 0xdd, 0xae, 
  0x5c, 0x95, 0xcf, 0xd0, 0x00, 0x91, 0x27, 0xdb, 0xed, 0xc7, 0x0a, 0x47, 
  0xa7, 0xfc, 0x11, 0x4d, 0x90, 0xa3, 0x16, 0xc0, 0xaa, 0x99, 0x38, 0x8d, 
  0xb8, 0xc8, 0x19, 0x2d, 0x47, 0xe8, 0xb4, 0x1a, 0xd8, 0x22, 0x18, 0xe3, 
  0xc1, 0x39, 0x9d, 0xb1, 0x29, 0xf2, 0x06, 0xfb, 0x83, 0x11, 0xca, 0xc9, 
  0xa4, 0xaa, 0xb1, 0x12, 0xa3, 0xa2, 0xed, 0x12, 0xd8, 0xdd, 0x24, 0x1e, 
  0xca, 0xe2, 0xf0, 0xf2, 0x63, 0xba, 0x93, 0xe9, 0x99, 0x50, 0x09, 0x43, 
  0x07, 0x3d, 0x14, 0xca, 0xa3, 0xb8, 0xdf, 0x9d, 0xce, 0x2c, 0x31, 0x2f, 
  0xe6, 0xf8, 0xd2, 0xbe, 0x56, 0xd7, 0x07, 0x08, 0x0e, 0xc2, 0xad, 0xec, 
  0x81, 0x0e, 0xfa, 0xd7, 0xdf, 0xfb, 0x65, 0x3a, 0xec, 0x13, 0x82, 0xb5, 
  0x39, 0x0a, 0x01, 0xad, 0xb5, 0x98, 0xd7, 0x19, 0xe5, 0xc9, 0xd1, 0x35, 
  0x12, 0xb4, 0xe1, 0xde, 0x1d, 0x64, 0xc2, 0xc0, 0xd5, 0xfd, 0x0e, 0x26, 
  0x32, 0x63, 0xbd, 0xd9, 0xc1, 0xef, 0x0f, 0xb6, 0xd1, 0x29, 0x01, 0x1b, 
  0x1e, 0xaa, 0x73, 0x08, 0x21, 0xc3, 0x64, 0xe6, 0x9b, 0xb8, 0xfb, 0xbe, 
  0x03, 0x57, 0x9d, 0x1d, 0x00, 0x20, 0x2b, 0x31, 0xfe, 0xd2, 0x59, 0x06, 
  0x19, 0x2a, 0x27, 0xbe, 0xc7, 0xad, 0x86, 0xf9, 0x07, 0x13, 0xad, 0xd5, 
  0xdb, 0x91, 0xb8, 0x09, 0xa0, 0x0b, 0xb2, 0x14, 0xef, 0x00, 0x02, 0x03, 
  0x29, 0xd4, 0x43, 0x21, 0x53, 0xf9, 0xa1, 0x89, 0x38, 0x35, 0x4e, 0x51, 
  0x22, 0x39, 0x29, 0x51, 0x3e, 0x4e, 0xd5, 0xa3, 0xf0, 0xb7, 0xe3, 0xba, 
  0xc1, 0x1e, 0xe9, 0xb5, 0xfb, 0x50, 0xfd, 0x3a, 0xb3, 0x1c, 0x29, 0x2f, 
  0x1a, 0xf3, 0xb2, 0xa8, 0x23, 0xad, 0x46, 0x9f, 0xa4, 0xf9, 0x5f, 0xc6, 
  0xc6, 0xca, 0x5f, 0xa7, 0x1f, 0xb0, 0x17, 0xfb, 0xff, 0x55, 0xcd, 0x0f, 
  0x15, 0x3d, 0x0f, 0xd6, 0x11, 0xab, 0x24, 0x83, 0x10, 0x5b, 0x35, 0x57, 
  0x9f, 0x37, 0xb6, 0xa7, 0xf6, 0xb0, 0xbc, 0xbf, 0x9d, 0xf6, 0x81, 0x01, 
  0xf2, 0x04, 0xbf, 0xe8, 0xde, 0xa5, 0x1f, 0x06, 0xe7, 0x8b, 0x51, 0x3b, 
  0x8c, 0x23, 0x31, 0xff, 0x36, 0x63, 0x15, 0xee, 0x1f, 0x1a, 0x06, 0x2f, 
  0x56, 0x59, 0xff, 0xd4, 0x35, 0xc1, 0x49, 0xa9, 0xc8, 0xa8, 0xb0, 0xa3, 
  0x95, 0x4b, 0xff, 0x62, 0x54, 0x58, 0x9d, 0xdb, 0x4b, 0xa4, 0x0c, 0x0d, 
  0x5e, 0x02, 0xf8, 0x42, 0x74, 0xec, 0x4d, 0xb3, 0x99, 0x14, 0x48, 0xa7, 
  0x09, 0xe9, 0x26, 0x2b, 0x13, 0x0a, 0x7b, 0xe6, 0x72, 0xe8, 0x2e, 0xf8, 
  0x6f, 0xda, 0x5e, 0xe6, 0x2e, 0x13, 0x30, 0x69, 0x75, 0x32, 0x27, 0xd6, 
  0x03, 0x32, 0x54, 0x30, 0xfb, 0x32, 0x4f, 0xd9, 0xc6, 0xe2, 0xc1, 0x74, 
  0x58, 0xd8, 0x4d, 0x88, 0x4d, 0x1b, 0x3c, 0x13, 0x88, 0x9b, 0x32, 0x1d, 
  0xe8, 0x1a, 0x15, 0x05, 0xe5, 0x75, 0x31, 0x0b, 0x41, 0xc5, 0x5c, 0xb9, 
  0x6f, 0x64, 0x3b, 0x81, 0x5f, 0xdf, 0x3e, 0xf4, 0x14, 0x0c, 0x2c, 0x0e, 
  0xa1, 0xea, 0x23, 0xdb, 0x2c, 0x25, 0x6c, 0xbc, 0x37, 0x33, 0xf0, 0xfb, 
  0xdf, 0x13, 0xd8, 0xd7, 0x7b, 0x30, 0x94, 0xdd, 0x3b, 0x4a, 0xa7, 0xbd, 
  0xda, 0xc0, 0xfd, 0xf3, 0xa9, 0xe3, 0x98, 0xef, 0x3f, 0xb2, 0xdc, 0x23, 
  0xda, 0x8e, 0x58, 0xb6, 0xf6, 0x29, 0x3a, 0x5c, 0x2d, 0x56, 0x19, 0xae, 
  0x45, 0xae, 0xc1, 0x1c, 0x07, 0xf5, 0x68, 0x5a, 0x39, 0xe3, 0x64, 0xd2, 
  0x1a, 0xc6, 0x12, 0x38, 0x03, 0x3e, 0x5e, 0x7e, 0x2d, 0x4f, 0x50, 0x65, 
  0xf0, 0xd4, 0x25, 0xbb, 0xbb, 0x5e, 0x42, 0x79, 0x3b, 0x6a, 0x26, 0xaf, 
  0xeb, 0x4e, 0xcc, 0x3c, 0x04, 0x52, 0xf4, 0x42, 0x1d, 0x45, 0x60, 0x27, 
  0x20, 0xcd, 0xfe, 0x53, 0x14, 0x3e, 0xfc, 0xef, 0xda, 0xf9, 0xa2, 0xc6, 
  0x9f, 0x24, 0xd5, 0xb0, 0xf3, 0x6c, 0xcf, 0xd1, 0x33, 0xd1, 0xd2, 0x45, 
  0x7f, 0xc4, 0xcf, 0xec, 0x03, 0xd4, 0xe8, 0x69, 0x3c, 0xc6, 0x46, 0x12, 
  0xc4, 0xbd, 0x51, 0xe3, 0x0e, 0x33, 0xcc, 0x23, 0xa9, 0xf5, 0x7b, 0xfe, 
  0x4c, 0x78, 0xce, 0x25, 0x4a, 0x70, 0xce, 0xe5, 0x7c, 0xf8, 0x3f, 0x11, 
  0x29, 0x1e, 0x23, 0x83, 0xb9, 0x0a, 0x23, 0x4d, 0x28, 0xd2, 0x5a, 0xee, 
  0x35, 0x44, 0xbd, 0x30, 0x4a, 0x07, 0xc9, 0x7f, 0x29, 0x1a, 0x02, 0xfe, 
  0xbd, 0xc4, 0xea, 0xa4, 0x4a, 0x93, 0x24, 0x23, 0xf2, 0xdf, 0xfe, 0x27, 
  0xec, 0xaf, 0x35, 0x1b, 0xda, 0xd9, 0x07, 0xd4, 0x1e, 0xc5, 0x76, 0x11, 
  0xa4, 0x61, 0x53, 0x3a, 0xd6, 0x18, 0x29, 0xaa, 0x1e, 0xa9, 0x72, 0x19, 
  0xf7, 0x32, 0xaa, 0x40, 0xcc, 0x2c, 0x2b, 0xfc, 0xf7, 0xe9, 0x06, 0x4e, 
  0x41, 0xac, 0xcb, 0xb1, 0xc3, 0xed, 0xdd, 0x2d, 0x5f, 0xec, 0x51, 0xda, 
  0x26, 0x61, 0xe5, 0x6b, 0x2f, 0xba, 0x0b, 0x68, 0x3d, 0x15, 0x0c, 0xd4, 
  0xa4, 0xaa, 0xb5, 0x51, 0xfb, 0xd5, 0xae, 0xd2, 0xf6, 0x11, 0x2e, 0xf0, 
  0xe0, 0xfe, 0x6a, 0x42, 0xac, 0xeb, 0xc8, 0x4c, 0x19, 0xdd, 0x09, 0xea, 
  0xfe, 0x37, 0x54, 0x53, 0x0f, 0x3f, 0x2f, 0xce, 0xfa, 0xcf, 0xee, 0x96, 
  0x9d, 0xcf, 0xdc, 0x53, 0x4d, 0x5d, 0x15, 0x36, 0x34, 0x3a, 0xc0, 0xc1, 
  0xea, 0x63, 0x11, 0x86, 0x66, 0x68, 0x9b, 0xde, 0x81, 0xda, 0x18, 0x4d, 
  0x49, 0x23, 0x46, 0xe3, 0xdf, 0x1d, 0x15, 0xad, 0x31, 0x09, 0x0e, 0xb7, 
  0x1a, 0x4a, 0xb7, 0x1e, 0x3c, 0x31, 0xd3, 0x66, 0x90, 0xe6, 0x54, 0xbc, 
  0x3c, 0xff, 0x36, 0x89, 0x49, 0xc7, 0x03, 0x39, 0xf0, 0x20, 0x42, 0xa3, 
  0x2c, 0x24, 0x2f, 0x27, 0xb2, 0xb6, 0x57, 0xcb, 0xf8, 0x37, 0x0d, 0x15, 
  0x57, 0xe3, 0x2f, 0x68, 0xca, 0x4c, 0x09, 0x1b, 0xc9, 0xda, 0xf7, 0xb6, 
  0xde, 0x04, 0xbe, 0x10, 0xfd, 0x2c, 0xed, 0x1f, 0xba, 0xb9, 0xcb, 0x92, 
  0xf1, 0xf7, 0x4e, 0x20, 0xe1, 0x5c, 0x8f, 0x26, 0x40, 0x08, 0x94, 0xb6, 
  0xf8, 0x13, 0xb4, 0xcf, 0x41, 0x24, 0x93, 0x44, 0xab, 0x33, 0x12, 0x4a, 
  0x11, 0xaf, 0x58, 0x34, 0x1d, 0xc5, 0x1d, 0xaa, 0xc6, 0xef, 0x12, 0xc1, 
  0xe7, 0xfd, 0x17, 0xd5, 0x0f, 0xc3, 0x24, 0x5b, 0xb6, 0xf9, 0xd5, 0xb9, 
  0xc1, 0xf2, 0x06, 0x46, 0xdd, 0xf8, 0xba, 0xe3, 0x14, 0x49, 0xc6, 0xa2, 
  0x21, 0xd3, 0x4d, 0xa2, 0xcf, 0x3f, 0xfb, 0x4a, 0x3b, 0xe4, 0x52, 0xd9, 
  0x03, 0xb2, 0x20, 0x00, 0x9b, 0x46, 0xbf, 0x7d, 0x5b, 0xd1, 0xdd, 0x69, 
  0x2f, 0xd7, 0xdb, 0x39, 0x68, 0xb6, 0xec, 0x97, 0x3b, 0xc8, 0x05, 0x28, 
  0x66, 0x2b, 0xee, 0xb2, 0x6d, 0x06, 0x43, 0x6a, 0x49, 0xb6, 0x2d, 0x62, 
  0xf7, 0xbe, 0x3e, 0x4e, 0xb8, 0xfa, 0x69, 0x5a, 0x7b, 0x2c, 0xc2, 0x13, 
  0x38, 0x13, 0xc4, 0x4e, 0xf6, 0x74, 0x64, 0xf8, 0x01, 0xf8, 0x1a, 0xc0, 
  0x22, 0x52, 0x2c, 0x9f, 0x14, 0x30, 0x9e, 0xe1, 0x03, 0xc9, 0x15, 0xd9, 
  0x0a, 0x76, 0xe3, 0x18, 0xc6, 0x33, 0x02, 0x54, 0xdb, 0x73, 0xa6, 0xea, 
  0x2d, 0x59, 0x38, 0x35, 0xa9, 0x81, 0x84, 0x95, 0xce, 0x62, 0xea, 0x28, 
  0x5a, 0x40, 0x6d, 0xe4, 0x0e, 0xc7, 0x73, 0x4f, 0xe2, 0x37, 0xc5, 0xb6, 
  0xe6, 0x2c, 0xe9, 0x29, 0x5d, 0x3a, 0x2e, 0xb0, 0x5a, 0xa0, 0xdb, 0xb5, 
  0x47, 0x40, 0x37, 0x89, 0x43, 0x48, 0x3a, 0x6d, 0xec, 0x2f, 0xe4, 0x75, 
  0x42, 0xf0, 0xb4, 0x06, 0xab, 0x29, 0x2d, 0x3f, 0x99, 0x1d, 0xdc, 0xd5, 
  0xa6, 0xfb, 0x52, 0xf8, 0xaa, 0x1a, 0x9c, 0x13, 0xa1, 0xaa, 0xfc, 0x8a, 
  0x1b, 0xda, 0xa9, 0xb4, 0x9f, 0xec, 0x13, 0x57, 0x0d, 0xcc, 0x20, 0x97, 
  0x96, 0x84, 0x3f, 0x11, 0x3e, 0x01, 0x2f, 0x81, 0x35, 0xfb, 0xad, 0xcb, 
  0x65, 0x07, 0x65, 0xf7, 0x10, 0xb8, 0xfc, 0xe0, 0x43, 0xcc, 0xea, 0x54, 
  0x5b, 0xdc, 0x95, 0xf4, 0xb1, 0xad, 0x31, 0x2b, 0xfc, 0x9e, 0x12, 0x19, 
  0x75, 0x62, 0xfa, 0x20, 0xae, 0x41, 0x3e, 0xa1, 0xde, 0x6e, 0x99, 0x18, 
  0x2e, 0x1e, 0xc3, 0xe9, 0x6a, 0x18, 0x1d, 0xce, 0x10, 0xcc, 0x42, 0x79, 
  0x40, 0x24, 0x4e, 0x92, 0xd7, 0xaa, 0xaa, 0xc5, 0xdb, 0xf2, 0x13, 0xec, 
  0x48, 0x5e, 0x02, 0x74, 0x51, 0xe8, 0x58, 0x48, 0xb1, 0x63, 0x02, 0xb1, 
  0x3d, 0x25, 0xa3, 0xea, 0x5b, 0xca, 0x66, 0xf1, 0xf6, 0x54, 0xbb, 0x39, 
  0x21, 0xdc, 0x06, 0x44, 0x02, 0xcd, 0xc4, 0xf6, 0xf3, 0xde, 0x62, 0x25, 
  0x63, 0x31, 0xc1, 0x2b, 0x14, 0xea, 0x58, 0x39, 0xd0, 0x08, 0x2d, 0x53, 
  0x92, 0xcb, 0xdc, 0x9a, 0xb2, 0xaf, 0x1a, 0x70, 0x38, 0xf9, 0xe9, 0xd7, 
  0x33, 0x26, 0x11, 0xfa, 0x53, 0xf8, 0x0e, 0xcb, 0x8d, 0xd3, 0xc9, 0xf2, 
  0xfc, 0xa9, 0x9d, 0x37, 0xf7, 0x79, 0x10, 0xa6, 0xcb, 0x32, 0x10, 0x3f, 
  0x1e, 0xde, 0xd0, 0x06, 0xd2, 0xf3, 0x20, 0xd5, 0xc4, 0x4b, 0x0b, 0x09, 
  0xca, 0x14, 0x27, 0xca, 0x11, 0xc6, 0x57, 0xbc, 0x04, 0x4d, 0x81, 0xc4, 
  0xa9, 0x45, 0x4a, 0x03, 0x8d, 0xa5, 0x1c, 0xe0, 0xe3, 0x3e, 0xf7, 0x24, 
  0x3b, 0x16, 0xf3, 0xea, 0x1d, 0x11, 0x2f, 0xc9, 0x1d, 0x8d, 0xd1, 0xd0, 
  0x54, 0x9a, 0xfa, 0xc1, 0x9f, 0xcb, 0xf6, 0x4d, 0xd8, 0xea, 0xbe, 0xc4, 
  0x02, 0x1a, 0xa0, 0xa5, 0x06, 0xd1, 0x41, 0x14, 0x47, 0x28, 0xd0, 0x46, 
  0x58, 0xa9, 0x3d, 0x41, 0xff, 0xe2, 0xb4, 0xa6, 0xb8, 0xae, 0xf2, 0x1a, 
  0x4c, 0xd5, 0x37, 0x54, 0x15, 0x26, 0x3c, 0x41, 0xbb, 0xe9, 0x75, 0x04, 
  0x2b, 0x5f, 0x4e, 0x1e, 0x53, 0x3f, 0x02, 0x09, 0xed, 0xb7, 0x11, 0xcf, 
  0x56, 0x21, 0xe0, 0xec, 0x91, 0x00, 0xe3, 0x4e, 0x46, 0xba, 0x21, 0x27, 
  0xa6, 0xb6, 0xb2, 0xb3, 0xa7, 0xc6, 0xbd, 0xc7, 0x17, 0xde, 0x58, 0x48, 
  0x17, 0x1c, 0x95, 0xfd, 0x3c, 0xd6, 0xc7, 0xcc, 0x1b, 0x9c, 0x31, 0x13, 
  0x57, 0x4f, 0xa4, 0x13, 0xc9, 0xa0, 0x05, 0x15, 0xa2, 0xc8, 0x1d, 0x1b, 
  0x1d, 0x41, 0x05, 0x49, 0x9c, 0xd5, 0x04, 0x2c, 0x33, 0xce, 0xb2, 0xb4, 
  0xc8, 0x94, 0x0e, 0xd7, 0x40, 0xd2, 0xd0, 0xea, 0xa6, 0xed, 0xeb, 0xfa, 
  0x2b, 0x7f, 0x1d, 0xaa, 0x9c, 0x29, 0xd1, 0xbf, 0x67, 0xb2, 0x5e, 0xe0, 
  0xbf, 0xce, 0x21, 0x23, 0xc1, 0xe9, 0x59, 0xec, 0xf5, 0xfd, 0x63, 0xcb, 
  0xc4, 0x07, 0xcd, 0xa3, 0x55, 0xe9, 0xd8, 0xea, 0x26, 0x12, 0x21, 0xd7, 
  0x4e, 0xb3, 0x13, 0x56, 0x73, 0x4e, 0xc2, 0x1a, 0xb1, 0x25, 0x5c, 0x9c, 
  0xcd, 0x9f, 0x2b, 0xa0, 0x65, 0x0f, 0x53, 0xf9, 0xb0, 0x6d, 0x59, 0x48, 
  0x02, 0xff, 0xf4, 0x4b, 0xc7, 0x5a, 0xb8, 0x22, 0x15, 0x5e, 0x43, 0xdc, 
  0x7c, 0xe6, 0x02, 0x41, 0xba, 0x23, 0xfe, 0x00, 0x16, 0xd1, 0x63, 0x7c, 
  0x3f, 0xb2, 0xb9, 0xb6, 0xfd, 0xf8, 0xc0, 0x7f, 0x4d, 0x06, 0xfe, 0xb4, 
  0x64, 0xf3, 0x67, 0x0d, 0xb8, 0xa6, 0xf8, 0x48, 0x39, 0x1f, 0xc1, 0x07, 
  0xbb, 0xaa, 0x7b, 0x0c, 0xd5, 0x33, 0x07, 0x24, 0x57, 0xa5, 0xf4, 0x78, 
  0x0e, 0xcc, 0xa9, 0x3f, 0x39, 0x67, 0xfd, 0xac, 0xe0, 0x66, 0xdb, 0xa4, 
  0x33, 0x13, 0xd0, 0x59, 0x15, 0x16, 0xcb, 0x33, 0x40, 0x09, 0xee, 0xef, 
  0x9d, 0xcf, 0x07, 0xab, 0xf0, 0xaa, 0xc0, 0x2e, 0x16, 0x16, 0xf5, 0x63, 
  0x54, 0xc4, 0x1c, 0x9a, 0x7d, 0x96, 0xa2, 0xac, 0x0f, 0xf3, 0x03, 0x2a, 
  0x35, 0xa6, 0x49, 0xc2, 0xe9, 0x25, 0xe8, 0xb1, 0xbc, 0xd2, 0x07, 0x2b, 
  0xc6, 0xd5, 0x4e, 0x0a, 0xf7, 0x22, 0xa7, 0xa1, 0x75, 0x11, 0xe2, 0x44, 
  0x8e, 0x72, 0x53, 0x45, 0x2b, 0xe8, 0xb5, 0x01, 0xc5, 0x68, 0x10, 0xef, 
  0x98, 0x8c, 0xf4, 0xb0, 0xfb, 0xc1, 0x42, 0x2c, 0x51, 0x12, 0x02, 0xaa, 
  0xe3, 0xeb, 0x27, 0xe6, 0xb0, 0x3b, 0xae, 0x01, 0x72, 0x0e, 0x42, 0xa2, 
  0x37, 0x35, 0xd5, 0x47, 0x2b, 0xa5, 0x4d, 0x36, 0x54, 0x10, 0xe6, 0xad, 
  0x07, 0xbc, 0xc7, 0x07, 0x0f, 0xd1, 0x24, 0x09, 0x41, 0xe0, 0x0d, 0x63, 
  0xbd, 0x9e, 0x34, 0xc3, 0xf7, 0x7f, 0x17, 0xbe, 0xbe, 0x32, 0xba, 0xb4, 
  0x28, 0x52, 0xa8, 0xde, 0x76, 0x52, 0xd3, 0xf6, 0x01, 0x2d, 0xe7, 0x24, 
  0x07, 0x20, 0x3f, 0xa7, 0xb6, 0x15, 0x67, 0xa4, 0x59, 0xd8, 0x5a, 0x0a, 
  0x64, 0xf1, 0x64, 0xbd, 0xea, 0x3c, 0x1a, 0x07, 0x07, 0x83, 0x32, 0x6a, 
  0x24, 0xe9, 0xd0, 0xe7, 0xcb, 0xdc, 0x3a, 0xb9, 0x55, 0xca, 0xda, 0xa9, 
  0x3e, 0xe3, 0xbf, 0x33, 0x11, 0x03, 0x93, 0xda, 0x42, 0x04, 0x35, 0x75, 
  0x6a, 0x15, 0x42, 0x09, 0x2b, 0xd3, 0x1e, 0x63, 0x47, 0x22, 0x51, 0x30, 
  0x5d, 0x01, 0xe5, 0x34, 0xb1, 0xfb, 0x58, 0x4c, 0xd3, 0xdb, 0xb9, 0x22, 
  0xe7, 0x1a, 0xb2, 0xa0, 0x09, 0xb9, 0xca, 0xbd, 0xb0, 0xf3, 0xc0, 0xbf, 
  0xcf, 0x0c, 0x26, 0x86, 0x40, 0xd6, 0x38, 0xe3, 0xb2, 0x2d, 0x1f, 0x44, 
  0x37, 0xf0, 0x01, 0x3e, 0x9a, 0x05, 0xfc, 0xf2, 0xe5, 0xd0, 0x95, 0xea, 
  0xb3, 0x11, 0x00, 0x8c, 0x1a, 0xde, 0xec, 0xa0, 0xb6, 0x24, 0x87, 0x08, 
  0xd3, 0xc3, 0xaa, 0x9a, 0x04, 0x85, 0xf9, 0x33, 0x2a, 0x85, 0x81, 0xdb, 
  0x23, 0x27, 0x92, 0xd9, 0x49, 0xeb, 0x38, 0x67, 0x66, 0xd5, 0xdf, 0x22, 
  0xf8, 0x6a, 0x6a, 0x01, 0xa9, 0x56, 0xab, 0xa7, 0x01, 0xd5, 0xe3, 0xcc, 
  0xa2, 0xf5, 0xff, 0xff, 0x04, 0x00, 0x00, 0x00, 0x00, 0x08, 0x00, 0x00, 
  0x99, 0xc3, 0x49, 0xbe, 0xa6, 0xf8, 0xbb, 0xbe, 0x97, 0x50, 0x76, 0xbe, 
  0x0f, 0x3b, 0x2f, 0x3e, 0x45, 0x56, 0xf0, 0x3d, 0xe8, 0x52, 0x3f, 0xbd, 
  0x4b, 0xab, 0x66, 0x3e, 0xc9, 0x35, 0x06, 0x3e, 0xcd, 0xed, 0xbf, 0xbe, 
  0x52, 0x5d, 0x31, 0xbc, 0x6f, 0x5a, 0xa4, 0x3d, 0x6e, 0xc4, 0xec, 0x3d, 
  0xd6, 0x3a, 0x5a, 0x3e, 0xa7, 0x18, 0x58, 0xbe, 0xa3, 0x41, 0x9f, 0x3e, 
  0x6b, 0xb4, 0x8c, 0x3e, 0x2e, 0x07, 0xae, 0xbb, 0x92, 0xb8, 0x9d, 0x3e, 
  0x60, 0xca, 0xb9, 0xbe, 0x5a, 0x3c, 0xf2, 0xbd, 0x9a, 0xa4, 0xeb, 0x3c, 
  0x40, 0xd1, 0x45, 0xbe, 0x5c, 0x8f, 0x59, 0xbe, 0x42, 0x93, 0x83, 0x3e, 
  0x08, 0xe8, 0x4c, 0xbc, 0x75, 0xd6, 0x7f, 0xbe, 0x91, 0xbf, 0x9c, 0xbe, 
  0x62, 0x2b, 0x75, 0x3e, 0x9d, 0xea, 0x08, 0xbe, 0xe9, 0xad, 0x5a, 0x3e, 
  0x08, 0x57, 0x12, 0xbe, 0x4b, 0x7d, 0x43, 0xbd, 0x6a, 0x63, 0x9e, 0x3d, 
  0x96, 0xaf, 0xa3, 0x3e, 0x07, 0x31, 0x85, 0x3b, 0x6a, 0x05, 0x72, 0xbe, 
  0x40, 0xda, 0xb5, 0xbc, 0x56, 0x13, 0x8e, 0xbe, 0x1f, 0xc1, 0x9d, 0xbe, 
  0x11, 0xfb, 0x0c, 0xbe, 0x41, 0x13, 0x08, 0x3e, 0x26, 0x67, 0x69, 0xbe, 
  0xe5, 0xf8, 0xad, 0xbe, 0x3c, 0x0c, 0x86, 0x3b, 0xc0, 0x7d, 0x7b, 0x3e, 
  0x36, 0xab, 0x40, 0xbe, 0x92, 0x55, 0x5c, 0x3e, 0x09, 0xa0, 0x85, 0x3e, 
  0x25, 0x0b, 0x52, 0x3e, 0xa5, 0x78, 0x96, 0xbe, 0x90, 0x04, 0x36, 0xbc, 
  0xa7, 0x99, 0x14, 0xbe, 0x3b, 0xde, 0x75, 0xbe, 0x6f, 0x9f, 0x8c, 0x3e, 
  0xdf, 0x1c, 0x8e, 0x3e, 0xd9, 0xe9, 0x42, 0xbe, 0xf8, 0x5e, 0x6a, 0x3d, 
  0xbf, 0xa1, 0xc1, 0x3e, 0xfc, 0x69, 0x3f, 0xbe, 0xe9, 0xf5, 0x18, 0x3b, 
  0x85, 0x03, 0x0d, 0xbe, 0x39, 0x09, 0x94, 0xbe, 0xc9, 0x20, 0x15, 0x3e, 
  0x17, 0xb2, 0xb1, 0x3e, 0x7f, 0xc1, 0x95, 0xbd, 0x96, 0x98, 0x99, 0xbe, 
  0x67, 0x73, 0xd9, 0xbd, 0xa7, 0x1e, 0xb2, 0xbd, 0xf2, 0xb3, 0x51, 0x3e, 
  0x32, 0xfc, 0x51, 0xbe, 0xdc, 0xcb, 0x87, 0x3e, 0xa1, 0xc2, 0xb0, 0xbe, 
  0x15, 0x83, 0x11, 0xbd, 0xaa, 0xfe, 0x19, 0xbe, 0x93, 0xf1, 0x9f, 0x3e, 
  0x39, 0x87, 0xea, 0xbd, 0x43, 0xe6, 0xd7, 0x3d, 0x11, 0x78, 0xa1, 0x3d, 
  0x40, 0xa9, 0xe0, 0x3d, 0x69, 0x21, 0xb0, 0x3d, 0x07, 0xd8, 0x9c, 0x3e, 
  0xa0, 0x68, 0x63, 0xbe, 0x56, 0x47, 0x38, 0x3e, 0x7b, 0x06, 0x83, 0x3e, 
  0x8f, 0x79, 0x1d, 0x3e, 0xf0, 0x42, 0x26, 0xbd, 0xb3, 0xf8, 0x75, 0x3e, 
  0xc4, 0x2d, 0xe3, 0xbd, 0x3c, 0xc4, 0x8b, 0xbd, 0x39, 0x40, 0x07, 0xbe, 
  0x85, 0xc6, 0x40, 0x3d, 0x05, 0xcd, 0xf3, 0x3d, 0xb2, 0x7a, 0xad, 0xbe, 
  0x92, 0x52, 0x2e, 0xbe, 0xb1, 0x2d, 0x18, 0xbe, 0x6e, 0xf0, 0xa2, 0xbe, 
  0xf8, 0x37, 0x2a, 0xbe, 0x6e, 0x58, 0x36, 0x3d, 0x26, 0x80, 0x81, 0x3e, 
  0xa4, 0x3b, 0x9b, 0x3e, 0xa0, 0x6b, 0xa3, 0x3e, 0xda, 0xc5, 0x92, 0xbe, 
  0x98, 0xe8, 0x27, 0xbd, 0xeb, 0x8b, 0x0a, 0xbb, 0xba, 0xa6, 0x46, 0xbe, 
  0x02, 0xd6, 0x65, 0x3e, 0x1b, 0x7a, 0x0b, 0xbd, 0xeb, 0x7f, 0x17, 0x3d, 
  0x7f, 0x6c, 0x60, 0xbd, 0x21, 0x36, 0x40, 0xbe, 0x58, 0xad, 0x6c, 0xbe, 
  0x1f, 0xfa, 0x52, 0x3e, 0x70, 0x00, 0xb5, 0xbe, 0x40, 0x4a, 0xe2, 0xbc, 
  0x90, 0x65, 0x0c, 0x3e, 0x11, 0x2e, 0x3c, 0xbe, 0x21, 0x40, 0x83, 0xbe, 
  0x79, 0x8d, 0x54, 0xbe, 0x21, 0x8e, 0xb7, 0xbe, 0x1f, 0xd3, 0x06, 0xbc, 
  0x08, 0x50, 0x22, 0xbe, 0x5d, 0xcf, 0x18, 0xbe, 0xc6, 0xc5, 0x61, 0xbe, 
  0xfd, 0x1f, 0x7a, 0xbe, 0x71, 0x3c, 0x68, 0x3e, 0x86, 0xcb, 0xa9, 0xbd, 
  0x10, 0x5d, 0x71, 0xbe, 0x9a, 0x3b, 0x99, 0x3e, 0xd3, 0x76, 0x1c, 0xbe, 
  0x00, 0x5d, 0x21, 0xbe, 0x5a, 0xe2, 0x8a, 0x3d, 0x7a, 0xcc, 0xac, 0x3e, 
  0x7c, 0xe1, 0x00, 0xbe, 0xca, 0x2c, 0x88, 0x3e, 0x31, 0xe9, 0x9b, 0xbe, 
  0xbc, 0x8d, 0x7e, 0xbe, 0xf0, 0xcd, 0x29, 0x3e, 0x54, 0xbc, 0x13, 0xbe, 
  0x2b, 0x95, 0xbb, 0x3e, 0xe4, 0xab, 0xe8, 0xbd, 0x65, 0xf2, 0x30, 0xbd, 
  0xe8, 0xc4, 0x79, 0xbd, 0x7d, 0x17, 0xd2, 0xbd, 0xc8, 0x34, 0x36, 0x3d, 
  0xa9, 0xed, 0x43, 0xbe, 0x18, 0x3e, 0x76, 0xbd, 0x54, 0x20, 0x8e, 0xbe, 
  0x10, 0xfa, 0x5d, 0xbe, 0xbe, 0x1c, 0xac, 0xbe, 0xfd, 0x59, 0x88, 0x3e, 
  0x45, 0xad, 0x43, 0x3e, 0xe4, 0x86, 0x94, 0x3e, 0x88, 0x45, 0x69, 0xbc, 
  0x4d, 0xa0, 0x72, 0x3e, 0x44, 0xda, 0x27, 0xbb, 0x0a, 0x01, 0xaf, 0xbd, 
  0x2b, 0x80, 0x81, 0xbd, 0x09, 0x60, 0x62, 0xbe, 0x1a, 0x83, 0x82, 0xbd, 
  0xfc, 0x89, 0xad, 0x3e, 0x3a, 0xa1, 0x1e, 0x3e, 0x74, 0x47, 0xbc, 0x3e, 
  0x11, 0xb7, 0x3e, 0x3d, 0x11, 0x13, 0x3f, 0xbe, 0x04, 0x0a, 0x97, 0x3e, 
  0x34, 0xf9, 0xc5, 0xbe, 0x8f, 0xdf, 0x89, 0xbe, 0x98, 0xd6, 0x2f, 0xbd, 
  0xaf, 0x4c, 0x8f, 0x3e, 0xfd, 0xd2, 0xa6, 0xbd, 0x1c, 0x9f, 0xb6, 0xbe, 
  0x4f, 0xa1, 0x9a, 0xbe, 0x96, 0x5a, 0x40, 0x3d, 0xc6, 0xe5, 0x95, 0xbe, 
  0xb5, 0x8f, 0xaa, 0x3e, 0x6c, 0x31, 0x79, 0xbe, 0x92, 0x16, 0x0c, 0xbe, 
  0xbb, 0x80, 0x78, 0x3e, 0x54, 0x38, 0xab, 0x3e, 0x52, 0xb3, 0x28, 0xbe, 
  0x4d, 0xcc, 0x34, 0xbe, 0x0a, 0xa3, 0x34, 0x3e, 0x96, 0x3a, 0x40, 0xbd, 
  0x72, 0x30, 0x58, 0x3d, 0xaf, 0x04, 0x23, 0xbe, 0x0a, 0xbe, 0xc5, 0xbe, 
  0x5d, 0x32, 0x48, 0xbe, 0xec, 0xce, 0x75, 0x3e, 0xd8, 0x87, 0xa2, 0x3c, 
  0x6f, 0x96, 0x48, 0xbe, 0x62, 0xb7, 0xb2, 0x3e, 0xf1, 0x7f, 0xa6, 0x3e, 
  0xa0, 0x2c, 0xb1, 0x3e, 0xe8, 0x38, 0x88, 0x3e, 0x20, 0x91, 0xa0, 0x3e, 
  0x95, 0x13, 0xeb, 0x3d, 0xca, 0x6a, 0x92, 0xbe, 0xa5, 0x92, 0x42, 0xbe, 
  0xd3, 0xb0, 0x86, 0x3e, 0xc1, 0x2b, 0xd1, 0x3d, 0x3a, 0x5c, 0x21, 0x3e, 
  0x6d, 0xbd, 0xab, 0xbe, 0x09, 0xfe, 0xa5, 0xbd, 0xf5, 0x4b, 0x4b, 0x3e, 
  0x05, 0x63, 0x7e, 0xbc, 0x37, 0xb7, 0xdc, 0xbd, 0xee, 0x3d, 0x19, 0x3e, 
  0x64, 0x7c, 0x96, 0x3e, 0xb0, 0x9d, 0x40, 0x3e, 0xb2, 0xec, 0xb9, 0xbc, 
  0x4b, 0x0f, 0x99, 0x3d, 0xd1, 0x0f, 0xb8, 0x3e, 0xeb, 0x97, 0x31, 0x3c, 
  0x6a, 0xd6, 0x79, 0x3e, 0x3b, 0x9e, 0x87, 0xbe, 0xfa, 0xe8, 0x87, 0xbd, 
  0x50, 0x45, 0xad, 0x3e, 0x06, 0x8e, 0x8b, 0xbe, 0x52, 0xc6, 0xb6, 0x3e, 
  0xb7, 0x3c, 0xcc, 0x3c, 0xce, 0xe0, 0x74, 0xbd, 0x27, 0x4b, 0xbc, 0x3c, 
  0x2d, 0x13, 0xa4, 0xbe, 0x43, 0x6e, 0x33, 0x3e, 0xda, 0xea, 0x81, 0xbe, 
  0xe7, 0x60, 0x04, 0xbe, 0x19, 0xad, 0xca, 0x3d, 0x10, 0x41, 0x64, 0x3e, 
  0xa4, 0x96, 0x58, 0x3e, 0x60, 0x9c, 0x68, 0x3e, 0xc2, 0xc3, 0x9a, 0xbe, 
  0xf8, 0x41, 0x6e, 0xbe, 0x8f, 0x65, 0x81, 0xbd, 0x41, 0xe3, 0xe8, 0xbd, 
  0x65, 0x78, 0x0e, 0xbe, 0x93, 0x16, 0x9e, 0xbe, 0xb8, 0x63, 0x86, 0x3e, 
  0xa5, 0x2d, 0x14, 0xbc, 0x21, 0x16, 0x67, 0xbe, 0x80, 0x59, 0x92, 0x3e, 
  0xca, 0xde, 0x4e, 0x3e, 0x3c, 0xc5, 0x82, 0xbd, 0x47, 0x73, 0x88, 0x3e, 
  0x68, 0x8d, 0xa2, 0xbe, 0xa7, 0x19, 0x3c, 0xbd, 0x02, 0xab, 0xd7, 0x3d, 
  0xce, 0x26, 0xaf, 0x3e, 0x36, 0x11, 0x3e, 0xbc, 0xba, 0x2c, 0x18, 0xbe, 
  0x90, 0x1e, 0x9e, 0xbd, 0x46, 0x92, 0xed, 0xbc, 0x93, 0x16, 0xa3, 0x3c, 
  0x27, 0x32, 0x48, 0xbd, 0xe4, 0x5b, 0x14, 0x3d, 0xac, 0x08, 0xb9, 0x3c, 
  0x8e, 0xbd, 0x9a, 0xbe, 0x07, 0x05, 0x17, 0xbc, 0x5c, 0x12, 0xf4, 0x3d, 
  0x9c, 0xc3, 0x69, 0xbc, 0xcc, 0x65, 0x78, 0xbe, 0xe4, 0xbd, 0x63, 0x3e, 
  0xd4, 0x5a, 0xa4, 0x3e, 0xdf, 0xaf, 0x66, 0x3e, 0xc5, 0x2f, 0xc1, 0xbe, 
  0xfe, 0x41, 0x7c, 0x3e, 0x18, 0xfc, 0x41, 0x3c, 0x88, 0xf2, 0x69, 0x3e, 
  0xce, 0x95, 0x40, 0x3e, 0xe1, 0x14, 0x09, 0x3e, 0xf2, 0xb1, 0x92, 0x3e, 
  0x15, 0x3d, 0xc5, 0x3d, 0x8f, 0xe4, 0xa1, 0xbe, 0xc5, 0x5b, 0xb5, 0xbe, 
  0xd6, 0x1b, 0x78, 0x3e, 0x0d, 0xe2, 0xa8, 0xbe, 0x54, 0x1a, 0xe1, 0x3d, 
  0x9d, 0x92, 0xb6, 0x3e, 0x08, 0xe1, 0x9a, 0x3e, 0xe2, 0x6f, 0x98, 0xbe, 
  0xaa, 0x43, 0x84, 0x3e, 0x0a, 0xe0, 0xb3, 0xbe, 0x5e, 0xeb, 0x4f, 0x3e, 
  0xe1, 0x05, 0x3d, 0xbe, 0x6b, 0x06, 0xa6, 0x3c, 0xbf, 0x2d, 0x99, 0x3d, 
  0xa4, 0x0d, 0x9c, 0xbe, 0x86, 0x83, 0x9b, 0x3e, 0x4a, 0x22, 0x8a, 0xbe, 
  0x26, 0xdf, 0x53, 0xbe, 0x6f, 0x92, 0x63, 0xbe, 0x45, 0xbc, 0x8a, 0x3e, 
  0xd6, 0xf6, 0x05, 0xbe, 0xcf, 0x64, 0xb9, 0x3e, 0x48, 0xb0, 0xbb, 0xbe, 
  0x77, 0x96, 0x62, 0xbe, 0xf6, 0x9b, 0x03, 0x3e, 0x55, 0xcd, 0x0f, 0x3e, 
  0x5f, 0x11, 0x93, 0x3e, 0x8e, 0x1a, 0x02, 0x3c, 0x02, 0x2d, 0x6a, 0xbd, 
  0xaf, 0x02, 0xba, 0xbe, 0x69, 0xc3, 0xf3, 0xbd, 0x80, 0xf2, 0x5a, 0xbd, 
  0x9c, 0xe1, 0x42, 0x3d, 0x23, 0x9b, 0xa4, 0x3e, 0x77, 0xee, 0x94, 0x3e, 
  0xcc, 0x99, 0x72, 0xbe, 0x6b, 0x2e, 0x84, 0xbe, 0x3e, 0x3d, 0xec, 0xbd, 
  0x84, 0x1b, 0xa7, 0x3d, 0x30, 0x6b, 0x12, 0x3c, 0x08, 0xe7, 0x4c, 0x3e, 
  0x84, 0xbf, 0x9b, 0xbe, 0xbc, 0x82, 0x38, 0x3e, 0xf7, 0x7b, 0xee, 0xbb, 
  0xc2, 0x47, 0x7c, 0x3e, 0xa0, 0xa3, 0x51, 0x3c, 0xa8, 0xed, 0xa3, 0x3d, 
  0xdb, 0x26, 0xbb, 0xbd, 0xe3, 0x5b, 0x6b, 0xbe, 0x37, 0xc3, 0x89, 0xbe, 
  0x7d, 0x1a, 0x29, 0xbe, 0x54, 0xe7, 0x31, 0x3d, 0x12, 0x4f, 0xa9, 0x39, 
  0xd5, 0xfc, 0x1a, 0x3e, 0xeb, 0xa0, 0x9f, 0x3d, 0x12, 0x56, 0x3b, 0x3e, 
  0xeb, 0x4e, 0x5c, 0xbd, 0x5b, 0xbd, 0x51, 0x3e, 0xc9, 0x55, 0x72, 0x3e, 
  0x72, 0x03, 0x42, 0x3e, 0xe8, 0x82, 0x7b, 0x3e, 0x35, 0x84, 0x2f, 0xbe, 
  0x2a, 0x89, 0xa1, 0xbe, 0x0e, 0xf8, 0x8f, 0x3e, 0xb8, 0xb9, 0xa7, 0x3e, 
  0x95, 0x1e, 0xdb, 0x3d, 0xf1, 0x9c, 0x57, 0x3e, 0xa0, 0xa2, 0xdd, 0xbd, 
  0x4a, 0x5f, 0x68, 0x3d, 0x7f, 0x62, 0x1d, 0x3d, 0x0a, 0xf1, 0xa0, 0x3d, 
  0x55, 0x7a, 0x73, 0x3c, 0x8e, 0xa3, 0x9e, 0xbe, 0x34, 0x19, 0x71, 0x3d, 
  0x92, 0x22, 0x9d, 0xbe, 0xfd, 0x85, 0x01, 0xbe, 0x01, 0x47, 0x3d, 0x3e, 
  0xd5, 0x77, 0x78, 0xbe, 0x15, 0xb7, 0x97, 0x3d, 0x2b, 0x8e, 0xa8, 0xbe, 
  0x8b, 0xd0, 0x82, 0x3e, 0x31, 0xa4, 0x30, 0x3d, 0x67, 0xb9, 0x22, 0xbc, 
  0xd3, 0x81, 0xbd, 0x3d, 0xb1, 0x9d, 0x8d, 0xbe, 0x2e, 0xa1, 0xb0, 0x3d, 
  0x21, 0x21, 0x29, 0xbe, 0x1a, 0x9e, 0x82, 0xbe, 0x1a, 0xc7, 0x19, 0xbd, 
  0x8c, 0xc1, 0x43, 0x3d, 0x80, 0x9d, 0x76, 0x3d, 0xf2, 0x9b, 0x13, 0x3e, 
  0x0d, 0xb0, 0x25, 0xbe, 0x80, 0x09, 0xae, 0x3e, 0xe6, 0xc4, 0xbd, 0x3d, 
  0x82, 0x42, 0x8f, 0xbe, 0xe2, 0xa3, 0x3a, 0x3d, 0xce, 0xfd, 0x92, 0xbe, 
  0x18, 0x51, 0x85, 0x3d, 0x9b, 0xce, 0x55, 0x3d, 0x3f, 0xc6, 0xdf, 0xbd, 
  0x90, 0xdd, 0x1c, 0xbe, 0x8b, 0x9f, 0x74, 0x3d, 0xb3, 0x24, 0xa0, 0xbe, 
  0xf3, 0x28, 0x9a, 0x3e, 0xea, 0xab, 0x87, 0x3e, 0xc9, 0xf8, 0xba, 0x3e, 
  0x2b, 0xef, 0x89, 0xbe, 0xaa, 0xf2, 0x57, 0x3e, 0x30, 0xd5, 0x56, 0xbe, 
  0xea, 0xc5, 0x2d, 0xbd, 0x11, 0x38, 0x33, 0xbe, 0xf1, 0xe1, 0x80, 0xbc, 
  0xd1, 0x03, 0xb1, 0xbd, 0x61, 0x97, 0x9f, 0xbe, 0x43, 0x66, 0xa7, 0xbd, 
  0xe2, 0x58, 0x0e, 0xbe, 0x50, 0x23, 0xd2, 0x3d, 0xc1, 0x8a, 0x9c, 0xbd, 
  0xdc, 0x75, 0x29, 0x3e, 0xd9, 0x19, 0x1c, 0xbe, 0x26, 0xc3, 0x09, 0xbd, 
  0x55, 0xf5, 0xc2, 0xbd, 0x79, 0x34, 0x4a, 0x3d, 0xab, 0xaf, 0xc2, 0x3c, 
  0xd9, 0x09, 0x57, 0x3e, 0x56, 0xbd, 0xc1, 0xbe, 0x0c, 0x29, 0x1d, 0x3e, 
  0xca, 0x2c, 0x22, 0x3e, 0xc5, 0xc0, 0x7a, 0x3d, 0xed, 0x96, 0xa9, 0xbc, 
  0x9d, 0xef, 0x8f, 0x3e, 0x3e, 0x99, 0xba, 0xbd, 0x8c, 0x7d, 0x50, 0x3e, 
  0x7d, 0xed, 0x32, 0xbd, 0xc9, 0xb0, 0x9b, 0x3e, 0xf8, 0xe6, 0xb0, 0x3e, 
  0x15, 0x73, 0x46, 0xbe, 0xe3, 0xa8, 0x12, 0xbe, 0x03, 0xa1, 0x88, 0xbe, 
  0xd5, 0x11, 0x5f, 0x3e, 0x40, 0x9e, 0x9f, 0xbe, 0x4f, 0x63, 0x01, 0xbd, 
  0x5c, 0x52, 0x98, 0xbe, 0x2a, 0x9f, 0x2a, 0x3e, 0x82, 0xf3, 0x6f, 0xbe, 
  0xfa, 0x48, 0xba, 0x3c, 0xc6, 0x66, 0x63, 0xbe, 0x42, 0xee, 0x3e, 0xbe, 
  0x87, 0x62, 0x95, 0x3e, 0xfa, 0xb2, 0x52, 0x3c, 0x67, 0x27, 0x18, 0xbe, 
  0x63, 0x70, 0xfd, 0x3d, 0xbe, 0x97, 0xb4, 0xbd, 0x6b, 0xe0, 0x56, 0xbe, 
  0x90, 0x73, 0xc5, 0xbc, 0xc6, 0xea, 0x02, 0xbd, 0xb8, 0x5b, 0x34, 0x3e, 
  0x59, 0x3c, 0x0e, 0xbe, 0x2a, 0x64, 0x39, 0xbe, 0x7c, 0xde, 0x54, 0x3e, 
  0xf0, 0x57, 0x39, 0xbe, 0x5a, 0x41, 0x96, 0x3d, 0xc6, 0xb0, 0xc7, 0xbd, 
  0x8c, 0xf9, 0x82, 0x3e, 0x8e, 0xa0, 0x85, 0xbe, 0x28, 0xba, 0x9d, 0xbd, 
  0x3e, 0x72, 0x5d, 0x3e, 0xdc, 0x57, 0xa7, 0xbe, 0x27, 0xf2, 0x8e, 0x3d, 
  0x12, 0x4a, 0xd5, 0x3c, 0x2e, 0x81, 0x10, 0xbe, 0xed, 0x88, 0xa7, 0x3e, 
  0x06, 0xed, 0x87, 0x3e, 0xe6, 0xdc, 0x60, 0xbd, 0x23, 0xc2, 0x1a, 0x3d, 
  0x4e, 0xfc, 0x84, 0x3e, 0x92, 0x8b, 0x8f, 0xbe, 0xfb, 0xc3, 0xad, 0x3e, 
  0x1c, 0x96, 0xac, 0x3e, 0xbd, 0x29, 0x90, 0x3e, 0xd6, 0xcb, 0x0a, 0x3e, 
  0x43, 0x25, 0x74, 0xbd, 0xb5, 0x09, 0x5f, 0xbe, 0xc7, 0x98, 0x7b, 0xbe, 
  0x41, 0x9b, 0x5f, 0x3d, 0x4e, 0xf6, 0x4a, 0xbc, 0x24, 0xb1, 0x86, 0xbe, 
  0x23, 0xd8, 0xaf, 0xbe, 0x3a, 0x6d, 0x13, 0x3c, 0xdf, 0x3a, 0x32, 0x3e, 
  0x57, 0x46, 0x32, 0xbe, 0xbd, 0xf6, 0xa0, 0xbe, 0xc1, 0xae, 0x8c, 0x3e, 
  0x38, 0x31, 0x08, 0xbe, 0xba, 0xeb, 0x72, 0xbe, 0x6f, 0x1d, 0xaf, 0xbd, 
  0x62, 0x2f, 0xf8, 0xbd, 0xf4, 0x54, 0x9d, 0x3e, 0x85, 0x0a, 0xbc, 0x3d, 
  0x68, 0xab, 0x41, 0xbe, 0x5a, 0x44, 0x06, 0x3b, 0x1f, 0x87, 0x24, 0x3e, 
  0x45, 0x96, 0x6d, 0x3d, 0x49, 0x06, 0x99, 0xbe, 0x72, 0x0c, 0x8f, 0xbe, 
  0x99, 0x62, 0x9e, 0x3e, 0x5f, 0xf8, 0x17, 0x3e, 0x23, 0xf5, 0x08, 0x3d, 
  0x8e, 0x11, 0x17, 0xbe, 0x62, 0x0d, 0xf8, 0xbd, 0xb3, 0x44, 0x0f, 0xbe, 
  0xee, 0x20, 0x9a, 0x3d, 0x52, 0xfe, 0xb1, 0xbe, 0xbd, 0x29, 0x9b, 0x3e, 
  0xe3, 0x99, 0x0a, 0xbe, 0x54, 0x8d, 0x8a, 0xbe, 0x4f, 0x22, 0x94, 0xbe, 
  0x63, 0xb9, 0x76, 0x3d, 0x7c, 0x70, 0x1d, 0x3c, 0xa2, 0x75, 0x88, 0x3e, 
  0x8e, 0x56, 0x88, 0xbe, 0x71, 0x13, 0xf2, 0xbd, 0x89, 0x9d, 0x11, 0xbe, 
  0x92, 0x16, 0x07, 0xbe, 0xd6, 0x97, 0xf6, 0xbd, 0x18, 0xc8, 0x1e, 0xbe, 
  0xb6, 0xa3, 0x83, 0x3d, 0xf5, 0xe1, 0x7a, 0x3e, 0x69, 0x3d, 0x80, 0x3e, 
  0x0a, 0x38, 0x92, 0xbe, 0xf9, 0x99, 0x9d, 0xbe, 0x79, 0x5b, 0xeb, 0x3d, 
  0x5d, 0x51, 0x86, 0x3e, 0x02, 0x33, 0x35, 0x3e, 0xa4, 0xb4, 0x7a, 0x3c, 
  0x03, 0x12, 0x8b, 0xbd, 0x50, 0x7f, 0xed, 0xbd, 0x30, 0x6b, 0x86, 0x3e, 
  0x1b, 0x08, 0x8a, 0xbe, 0xaa, 0x40, 0xaf, 0xbe, 0xae, 0xfd, 0xff, 0xff, 
  0x04, 0x00, 0x00, 0x00, 0xc0, 0x00, 0x00, 0x00, 0x84, 0x91, 0xb1, 0x3e, 
  0xde, 0xea, 0x1b, 0xbf, 0xa4, 0xb9, 0xf7, 0x3e, 0x49, 0x1b, 0xb3, 0x3e, 
  0x8e, 0x85, 0x18, 0xbf, 0x17, 0x58, 0x19, 0xbf, 0x30, 0x6b, 0x0e, 0x3e, 
  0x05, 0xbd, 0xe8, 0xbe, 0x51, 0x6d, 0xe8, 0x3e, 0x97, 0x0d, 0x41, 0x3e, 
  0x90, 0x10, 0x66, 0x3e, 0x43, 0x82, 0x5d, 0x3e, 0xde, 0xee, 0xac, 0x3d, 
  0x1c, 0xc2, 0x1e, 0x3d, 0xee, 0xa6, 0xb2, 0xbe, 0xbf, 0x7e, 0x01, 0x3e, 
  0x6a, 0x8d, 0xf9, 0xbe, 0xe8, 0x33, 0x8d, 0x3e, 0x52, 0x8b, 0x08, 0xbf, 
  0x39, 0xa5, 0x24, 0x3e, 0x5c, 0x59, 0x21, 0xbe, 0x32, 0x23, 0xf5, 0xbb, 
  0x4c, 0x07, 0xe5, 0x3e, 0x2b, 0x54, 0x0e, 0xbf, 0xa0, 0x4c, 0x96, 0xbe, 
  0xf2, 0xf6, 0xab, 0x3e, 0x91, 0xd1, 0x96, 0x3e, 0x93, 0xec, 0xec, 0xbe, 
  0x67, 0xd7, 0x0c, 0xbf, 0xb3, 0xc4, 0x1d, 0x3f, 0xee, 0x36, 0x8c, 0xbc, 
  0xb6, 0x78, 0xbe, 0xbe, 0xcf, 0xfc, 0x00, 0xbf, 0xfb, 0x71, 0xbd, 0x3e, 
  0x20, 0xf7, 0xbd, 0x3d, 0x97, 0x89, 0xf8, 0xbe, 0xf8, 0x72, 0x2b, 0x3e, 
  0x35, 0x00, 0x19, 0xbf, 0x67, 0xf0, 0x00, 0xbf, 0x31, 0xf5, 0xc9, 0x3e, 
  0xfa, 0xb0, 0x3b, 0x3e, 0x6a, 0x58, 0x71, 0x3e, 0x68, 0x0f, 0x48, 0x3e, 
  0x8a, 0x72, 0xdb, 0x3d, 0xe9, 0x03, 0x0b, 0xbf, 0x5f, 0x08, 0x95, 0x3d, 
  0x75, 0x22, 0xf5, 0x3e, 0xd9, 0x22, 0x9f, 0xbd, 0x7a, 0xfe, 0xff, 0xff, 
  0x04, 0x00, 0x00, 0x00, 0x0c, 0x00, 0x00, 0x00, 0xce, 0x88, 0x7b, 0xbd, 
  0x50, 0x35, 0x5b, 0x3d, 0x67, 0xa3, 0x37, 0x3d, 0x92, 0xfe, 0xff, 0xff, 
  0x04, 0x00, 0x00, 0x00, 0x40, 0x00, 0x00, 0x00, 0xda, 0xf6, 0x63, 0x3c, 
  0xba, 0x11, 0x99, 0x3d, 0xe1, 0x8b, 0xfd, 0x3c, 0xf6, 0x24, 0x1e, 0xbc, 
  0x12, 0x5b, 0x92, 0x3d, 0x55, 0x8f, 0xa8, 0x3d, 0x04, 0xb8, 0x31, 0x3c, 
  0xd1, 0xa1, 0xa1, 0x3d, 0x8a, 0x38, 0x61, 0xbc, 0xd7, 0xd0, 0x9c, 0xbc, 
  0xb7, 0x60, 0x9b, 0xbc, 0x14, 0x79, 0x00, 0xbd, 0x1f, 0x9c, 0x94, 0x3b, 
  0x87, 0x5f, 0x82, 0x3d, 0x08, 0xfc, 0x8c, 0x3d, 0xeb, 0xa0, 0x59, 0x3d, 
  0xde, 0xfe, 0xff, 0xff, 0x04, 0x00, 0x00, 0x00, 0x80, 0x00, 0x00, 0x00, 
  0x7b, 0x2e, 0x0d, 0xbd, 0x01, 0x22, 0x77, 0x3d, 0x15, 0x8c, 0xcb, 0x3c, 
  0x9c, 0xa8, 0x4d, 0x3d, 0x9b, 0xa5, 0xd3, 0x3a, 0xac, 0x76, 0x57, 0x3d, 
  0x2e, 0x5d, 0x39, 0x3b, 0xbc, 0x51, 0x04, 0xbd, 0x06, 0xec, 0xb6, 0x3c, 
  0x6b, 0xec, 0x13, 0xbd, 0x18, 0xf0, 0xed, 0xbb, 0x19, 0xd6, 0x33, 0xbc, 
  0xc2, 0x76, 0x47, 0x3d, 0xb0, 0xc1, 0xba, 0xbb, 0x58, 0xbf, 0x30, 0x3d, 
  0x1d, 0x73, 0x1b, 0x3c, 0x3e, 0xb9, 0xaa, 0x3c, 0x76, 0x9f, 0xd8, 0xbc, 
  0x82, 0x6f, 0x9a, 0xbb, 0x5d, 0xcb, 0x30, 0x3c, 0x79, 0xc4, 0xbb, 0x3c, 
  0x74, 0xb7, 0x1e, 0x3d, 0xfe, 0x12, 0x82, 0x3d, 0xcb, 0x52, 0x13, 0xbc, 
  0x49, 0x07, 0xa7, 0xbc, 0x97, 0x12, 0x48, 0x3d, 0x72, 0x55, 0xf7, 0xbc, 
  0xb3, 0x4b, 0xcf, 0x3c, 0x3e, 0x7b, 0x2b, 0x3c, 0x90, 0xc6, 0x2e, 0xbc, 
  0x12, 0xdc, 0xb9, 0x3c, 0x2e, 0xba, 0xa3, 0x3d, 0x1c, 0xf8, 0xff, 0xff, 
  0x20, 0xf8, 0xff, 0xff, 0x0f, 0x00, 0x00, 0x00, 0x4d, 0x4c, 0x49, 0x52, 
  0x20, 0x43, 0x6f, 0x6e, 0x76, 0x65, 0x72, 0x74, 0x65, 0x64, 0x2e, 0x00, 
  0x01, 0x00, 0x00, 0x00, 0x14, 0x00, 0x00, 0x00, 0x00, 0x00, 0x0e, 0x00, 
  0x18, 0x00, 0x14, 0x00, 0x10, 0x00, 0x0c, 0x00, 0x08, 0x00, 0x04, 0x00, 
  0x0e, 0x00, 0x00, 0x00, 0x14, 0x00, 0x00, 0x00, 0x1c, 0x00, 0x00, 0x00, 
  0x40, 0x01, 0x00, 0x00, 0x44, 0x01, 0x00, 0x00, 0x48, 0x01, 0x00, 0x00, 
  0x04, 0x00, 0x00, 0x00, 0x6d, 0x61, 0x69, 0x6e, 0x00, 0x00, 0x00, 0x00, 
  0x04, 0x00, 0x00, 0x00, 0xe4, 0x00, 0x00, 0x00, 0x94, 0x00, 0x00, 0x00, 
  0x50, 0x00, 0x00, 0x00, 0x14, 0x00, 0x00, 0x00, 0x00, 0x00, 0x0e, 0x00, 
  0x1a, 0x00, 0x14, 0x00, 0x10, 0x00, 0x0c, 0x00, 0x0b, 0x00, 0x04, 0x00, 
  0x0e, 0x00, 0x00, 0x00, 0x1c, 0x00, 0x00, 0x00, 0x00, 0x00, 0x00, 0x09, 
  0x1c, 0x00, 0x00, 0x00, 0x20, 0x00, 0x00, 0x00, 0x01, 0x00, 0x00, 0x00, 
  0x00, 0x00, 0x06, 0x00, 0x08, 0x00, 0x04, 0x00, 0x06, 0x00, 0x00, 0x00, 
  0x00, 0x00, 0x80, 0x3f, 0x01, 0x00, 0x00, 0x00, 0x0a, 0x00, 0x00, 0x00, 
  0x01, 0x00, 0x00, 0x00, 0x09, 0x00, 0x00, 0x00, 0x82, 0xff, 0xff, 0xff, 
  0x10, 0x00, 0x00, 0x00, 0x00, 0x00, 0x00, 0x08, 0x0c, 0x00, 0x00, 0x00, 
  0x10, 0x00, 0x00, 0x00, 0xe4, 0xf8, 0xff, 0xff, 0x01, 0x00, 0x00, 0x00, 
  0x09, 0x00, 0x00, 0x00, 0x03, 0x00, 0x00, 0x00, 0x08, 0x00, 0x00, 0x00, 
  0x04, 0x00, 0x00, 0x00, 0x03, 0x00, 0x00, 0x00, 0x00, 0x00, 0x0e, 0x00, 
  0x16, 0x00, 0x00, 0x00, 0x10, 0x00, 0x0c, 0x00, 0x0b, 0x00, 0x04, 0x00, 
  0x0e, 0x00, 0x00, 0x00, 0x18, 0x00, 0x00, 0x00, 0x00, 0x00, 0x00, 0x08, 
  0x18, 0x00, 0x00, 0x00, 0x1c, 0x00, 0x00, 0x00, 0x00, 0x00, 0x06, 0x00, 
  0x08, 0x00, 0x07, 0x00, 0x06, 0x00, 0x00, 0x00, 0x00, 0x00, 0x00, 0x01, 
  0x01, 0x00, 0x00, 0x00, 0x08, 0x00, 0x00, 0x00, 0x03, 0x00, 0x00, 0x00, 
  0x07, 0x00, 0x00, 0x00, 0x05, 0x00, 0x00, 0x00, 0x02, 0x00, 0x00, 0x00, 
  0x00, 0x00, 0x0e, 0x00, 0x14, 0x00, 0x00, 0x00, 0x10, 0x00, 0x0c, 0x00, 
  0x0b, 0x00, 0x04, 0x00, 0x0e, 0x00, 0x00, 0x00, 0x1c, 0x00, 0x00, 0x00, 
  0x00, 0x00, 0x00, 0x08, 0x1c, 0x00, 0x00, 0x00, 0x20, 0x00, 0x00, 0x00, 
  0x0c, 0x00, 0x08, 0x00, 0x07, 0x00, 0x00, 0x00, 0x00, 0x00, 0x06, 0x00, 
  0x0c, 0x00, 0x00, 0x00, 0x00, 0x00, 0x01, 0x01, 0x01, 0x00, 0x00, 0x00, 
  0x07, 0x00, 0x00, 0x00, 0x03, 0x00, 0x00, 0x00, 0x00, 0x00, 0x00, 0x00, 
  0x06, 0x00, 0x00, 0x00, 0x01, 0x00, 0x00, 0x00, 0x01, 0x00, 0x00, 0x00, 
  0x0a, 0x00, 0x00, 0x00, 0x01, 0x00, 0x00, 0x00, 0x00, 0x00, 0x00, 0x00, 
  0x0b, 0x00, 0x00, 0x00, 0x28, 0x06, 0x00, 0x00, 0xa4, 0x05, 0x00, 0x00, 
  0x20, 0x05, 0x00, 0x00, 0xd0, 0x04, 0x00, 0x00, 0x80, 0x04, 0x00, 0x00, 
  0x30, 0x04, 0x00, 0x00, 0x3c, 0x02, 0x00, 0x00, 0x84, 0x01, 0x00, 0x00, 
  0xe4, 0x00, 0x00, 0x00, 0x60, 0x00, 0x00, 0x00, 0x04, 0x00, 0x00, 0x00, 
  0x1a, 0xfa, 0xff, 0xff, 0x00, 0x00, 0x00, 0x01, 0x14, 0x00, 0x00, 0x00, 
  0x1c, 0x00, 0x00, 0x00, 0x1c, 0x00, 0x00, 0x00, 0x0b, 0x00, 0x00, 0x00, 
  0x34, 0x00, 0x00, 0x00, 0x02, 0x00, 0x00, 0x00, 0xff, 0xff, 0xff, 0xff, 
  0x03, 0x00, 0x00, 0x00, 0x04, 0xfa, 0xff, 0xff, 0x1b, 0x00, 0x00, 0x00, 
  0x53, 0x74, 0x61, 0x74, 0x65, 0x66, 0x75, 0x6c, 0x50, 0x61, 0x72, 0x74, 
  0x69, 0x74, 0x69, 0x6f, 0x6e, 0x65, 0x64, 0x43, 0x61, 0x6c, 0x6c, 0x5f, 
  0x31, 0x3a, 0x30, 0x00, 0x02, 0x00, 0x00, 0x00, 0x01, 0x00, 0x00, 0x00, 
  0x03, 0x00, 0x00, 0x00, 0x72, 0xfa, 0xff, 0xff, 0x00, 0x00, 0x00, 0x01, 
  0x14, 0x00, 0x00, 0x00, 0x1c, 0x00, 0x00, 0x00, 0x1c, 0x00, 0x00, 0x00, 
  0x0a, 0x00, 0x00, 0x00, 0x5c, 0x00, 0x00, 0x00, 0x02, 0x00, 0x00, 0x00, 
  0xff, 0xff, 0xff, 0xff, 0x03, 0x00, 0x00, 0x00, 0x5c, 0xfa, 0xff, 0xff, 
  0x40, 0x00, 0x00, 0x00, 0x73, 0x65, 0x71, 0x75, 0x65, 0x6e, 0x74, 0x69, 
  0x61, 0x6c, 0x5f, 0x31, 0x5f, 0x31, 0x2f, 0x64, 0x65, 0x6e, 0x73, 0x65, 
  0x5f, 0x35, 0x5f, 0x31, 0x2f, 0x4d, 0x61, 0x74, 0x4d, 0x75, 0x6c, 0x3b, 
  0x73, 0x65, 0x71, 0x75, 0x65, 0x6e, 0x74, 0x69, 0x61, 0x6c, 0x5f, 0x31, 
  0x5f, 0x31, 0x2f, 0x64, 0x65, 0x6e, 0x73, 0x65, 0x5f, 0x35, 0x5f, 0x31, 
  0x2f, 0x42, 0x69, 0x61, 0x73, 0x41, 0x64, 0x64, 0x00, 0x00, 0x00, 0x00, 
  0x02, 0x00, 0x00, 0x00, 0x01, 0x00, 0x00, 0x00, 0x03, 0x00, 0x00, 0x00, 
  0xf2, 0xfa, 0xff, 0xff, 0x00, 0x00, 0x00, 0x01, 0x14, 0x00, 0x00, 0x00, 
  0x1c, 0x00, 0x00, 0x00, 0x1c, 0x00, 0x00, 0x00, 0x09, 0x00, 0x00, 0x00, 
  0x78, 0x00, 0x00, 0x00, 0x02, 0x00, 0x00, 0x00, 0xff, 0xff, 0xff, 0xff, 
  0x10, 0x00, 0x00, 0x00, 0xdc, 0xfa, 0xff, 0xff, 0x5e, 0x00, 0x00, 0x00, 
  0x73, 0x65, 0x71, 0x75, 0x65, 0x6e, 0x74, 0x69, 0x61, 0x6c, 0x5f, 0x31, 
  0x5f, 0x31, 0x2f, 0x64, 0x65, 0x6e, 0x73, 0x65, 0x5f, 0x34, 0x5f, 0x31, 
  0x2f, 0x4d, 0x61, 0x74, 0x4d, 0x75, 0x6c, 0x3b, 0x73, 0x65, 0x71, 0x75, 
  0x65, 0x6e, 0x74, 0x69, 0x61, 0x6c, 0x5f, 0x31, 0x5f, 0x31, 0x2f, 0x64, 
  0x65, 0x6e, 0x73, 0x65, 0x5f, 0x34, 0x5f, 0x31, 0x2f, 0x52, 0x65, 0x6c, 
  0x75, 0x3b, 0x73, 0x65, 0x71, 0x75, 0x65, 0x6e, 0x74, 0x69, 0x61, 0x6c, 
  0x5f, 0x31, 0x5f, 0x31, 0x2f, 0x64, 0x65, 0x6e, 0x73, 0x65, 0x5f, 0x34, 
  0x5f, 0x31, 0x2f, 0x42, 0x69, 0x61, 0x73, 0x41, 0x64, 0x64, 0x00, 0x00, 
  0x02, 0x00, 0x00, 0x00, 0x01, 0x00, 0x00, 0x00, 0x10, 0x00, 0x00, 0x00, 
  0x8e, 0xfb, 0xff, 0xff, 0x00, 0x00, 0x00, 0x01, 0x14, 0x00, 0x00, 0x00, 
  0x1c, 0x00, 0x00, 0x00, 0x1c, 0x00, 0x00, 0x00, 0x08, 0x00, 0x00, 0x00, 
  0x78, 0x00, 0x00, 0x00, 0x02, 0x00, 0x00, 0x00, 0xff, 0xff, 0xff, 0xff, 
  0x20, 0x00, 0x00, 0x00, 0x78, 0xfb, 0xff, 0xff, 0x5e, 0x00, 0x00, 0x00, 
  0x73, 0x65, 0x71, 0x75, 0x65, 0x6e, 0x74, 0x69, 0x61, 0x6c, 0x5f, 0x31, 
  0x5f, 0x31, 0x2f, 0x64, 0x65, 0x6e, 0x73, 0x65, 0x5f, 0x33, 0x5f, 0x31, 
  0x2f, 0x4d, 0x61, 0x74, 0x4d, 0x75, 0x6c, 0x3b, 0x73, 0x65, 0x71, 0x75, 
  0x65, 0x6e, 0x74, 0x69, 0x61, 0x6c, 0x5f, 0x31, 0x5f, 0x31, 0x2f, 0x64, 
  0x65, 0x6e, 0x73, 0x65, 0x5f, 0x33, 0x5f, 0x31, 0x2f, 0x52, 0x65, 0x6c, 
  0x75, 0x3b, 0x73, 0x65, 0x71, 0x75, 0x65, 0x6e, 0x74, 0x69, 0x61, 0x6c, 
  0x5f, 0x31, 0x5f, 0x31, 0x2f, 0x64, 0x65, 0x6e, 0x73, 0x65, 0x5f, 0x33, 
  0x5f, 0x31, 0x2f, 0x42, 0x69, 0x61, 0x73, 0x41, 0x64, 0x64, 0x00, 0x00, 
  0x02, 0x00, 0x00, 0x00, 0x01, 0x00, 0x00, 0x00, 0x20, 0x00, 0x00, 0x00, 
  0x00, 0x00, 0x16, 0x00, 0x1c, 0x00, 0x18, 0x00, 0x17, 0x00, 0x10, 0x00, 
  0x0c, 0x00, 0x08, 0x00, 0x00, 0x00, 0x00, 0x00, 0x00, 0x00, 0x07, 0x00, 
  0x16, 0x00, 0x00, 0x00, 0x00, 0x00, 0x00, 0x01, 0x20, 0x00, 0x00, 0x00, 
  0xb4, 0x01, 0x00, 0x00, 0x07, 0x00, 0x00, 0x00, 0x00, 0x00, 0x00, 0x09, 
  0xcc, 0x01, 0x00, 0x00, 0x0c, 0x00, 0x0c, 0x00, 0x00, 0x00, 0x00, 0x00, 
  0x08, 0x00, 0x04, 0x00, 0x0c, 0x00, 0x00, 0x00, 0x08, 0x00, 0x00, 0x00, 
  0x0c, 0x01, 0x00, 0x00, 0x20, 0x00, 0x00, 0x00, 0x00, 0x00, 0x00, 0x00, 
  0x00, 0x00, 0x00, 0x00, 0x00, 0x00, 0x00, 0x00, 0x00, 0x00, 0x00, 0x00, 
  0x00, 0x00, 0x00, 0x00, 0x00, 0x00, 0x00, 0x00, 0x00, 0x00, 0x00, 0x00, 
  0x00, 0x00, 0x00, 0x00, 0x00, 0x00, 0x00, 0x00, 0x00, 0x00, 0x00, 0x00, 
  0x00, 0x00, 0x00, 0x00, 0x00, 0x00, 0x00, 0x00, 0x00, 0x00, 0x00, 0x00, 
  0x00, 0x00, 0x00, 0x00, 0x00, 0x00, 0x00, 0x00, 0x00, 0x00, 0x00, 0x00, 
  0x00, 0x00, 0x00, 0x00, 0x00, 0x00, 0x00, 0x00, 0x00, 0x00, 0x00, 0x00, 
  0x00, 0x00, 0x00, 0x00, 0x00, 0x00, 0x00, 0x00, 0x00, 0x00, 0x00, 0x00, 
  0x00, 0x00, 0x00, 0x00, 0x00, 0x00, 0x00, 0x00, 0x00, 0x00, 0x00, 0x00, 
  0x00, 0x00, 0x00, 0x00, 0x00, 0x00, 0x00, 0x00, 0x00, 0x00, 0x00, 0x00, 
  0x00, 0x00, 0x00, 0x00, 0x00, 0x00, 0x00, 0x00, 0x00, 0x00, 0x00, 0x00, 
  0x00, 0x00, 0x00, 0x00, 0x00, 0x00, 0x00, 0x00, 0x00, 0x00, 0x00, 0x00, 
  0x00, 0x00, 0x00, 0x00, 0x00, 0x00, 0x00, 0x00, 0x00, 0x00, 0x00, 0x00, 
  0x00, 0x00, 0x00, 0x00, 0x00, 0x00, 0x00, 0x00, 0x00, 0x00, 0x00, 0x00, 
  0x00, 0x00, 0x00, 0x00, 0x00, 0x00, 0x00, 0x00, 0x00, 0x00, 0x00, 0x00, 
  0x00, 0x00, 0x00, 0x00, 0x00, 0x00, 0x00, 0x00, 0x00, 0x00, 0x00, 0x00, 
  0x00, 0x00, 0x00, 0x00, 0x00, 0x00, 0x00, 0x00, 0x00, 0x00, 0x00, 0x00, 
  0x00, 0x00, 0x00, 0x00, 0x00, 0x00, 0x00, 0x00, 0x00, 0x00, 0x00, 0x00, 
  0x00, 0x00, 0x00, 0x00, 0x00, 0x00, 0x00, 0x00, 0x00, 0x00, 0x00, 0x00, 
  0x00, 0x00, 0x00, 0x00, 0x00, 0x00, 0x00, 0x00, 0x00, 0x00, 0x00, 0x00, 
  0x00, 0x00, 0x00, 0x00, 0x00, 0x00, 0x00, 0x00, 0x00, 0x00, 0x00, 0x00, 
  0x00, 0x00, 0x00, 0x00, 0x00, 0x00, 0x00, 0x00, 0x00, 0x00, 0x00, 0x00, 
  0x00, 0x00, 0x00, 0x00, 0x20, 0x00, 0x00, 0x00, 0xf1, 0xdb, 0xee, 0x3a, 
  0x92, 0xc2, 0x00, 0x3b, 0x4b, 0x42, 0xd1, 0x3a, 0xfc, 0x66, 0xf4, 0x3a, 
  0xc3, 0x35, 0xd7, 0x3a, 0x6e, 0x8b, 0xf2, 0x3a, 0x01, 0x43, 0xef, 0x3a, 
  0x76, 0xa4, 0xdc, 0x3a, 0xb5, 0x1b, 0xe1, 0x3a, 0x95, 0x94, 0xce, 0x3a, 
  0xa6, 0x2c, 0xfb, 0x3a, 0xaa, 0x1e, 0xe2, 0x3a, 0xbd, 0x9a, 0xe0, 0x3a, 
  0xfb, 0x07, 0xdd, 0x3a, 0x81, 0x04, 0xf5, 0x3a, 0x16, 0x7d, 0xd1, 0x3a, 
  0x2f, 0x73, 0xd3, 0x3a, 0xc8, 0x10, 0xde, 0x3a, 0xc1, 0x60, 0xda, 0x3a, 
  0xa2, 0x23, 0xe7, 0x3a, 0x80, 0x7e, 0xea, 0x3a, 0x43, 0xb1, 0xdf, 0x3a, 
  0x6b, 0x6c, 0xed, 0x3a, 0xc2, 0x17, 0xe9, 0x3a, 0x23, 0x2e, 0xda, 0x3a, 
  0xd6, 0x3d, 0xe6, 0x3a, 0xb2, 0xbd, 0xca, 0x3a, 0xe8, 0xb4, 0xf1, 0x3a, 
  0x2c, 0xd0, 0xf8, 0x3a, 0xc7, 0x4b, 0xe1, 0x3a, 0xbe, 0x50, 0xdd, 0x3a, 
  0x93, 0xb3, 0x03, 0x3b, 0x1f, 0x00, 0x00, 0x00, 0x73, 0x65, 0x71, 0x75, 
  0x65, 0x6e, 0x74, 0x69, 0x61, 0x6c, 0x5f, 0x31, 0x5f, 0x31, 0x2f, 0x64, 
  0x65, 0x6e, 0x73, 0x65, 0x5f, 0x33, 0x5f, 0x31, 0x2f, 0x4d, 0x61, 0x74, 
  0x4d, 0x75, 0x6c, 0x00, 0x02, 0x00, 0x00, 0x00, 0x20, 0x00, 0x00, 0x00, 
  0x8a, 0x00, 0x00, 0x00, 0xb2, 0xfe, 0xff, 0xff, 0x00, 0x00, 0x00, 0x01, 
  0x10, 0x00, 0x00, 0x00, 0x10, 0x00, 0x00, 0x00, 0x06, 0x00, 0x00, 0x00, 
  0x2c, 0x00, 0x00, 0x00, 0x0c, 0xfe, 0xff, 0xff, 0x1f, 0x00, 0x00, 0x00, 
  0x73, 0x65, 0x71, 0x75, 0x65, 0x6e, 0x74, 0x69, 0x61, 0x6c, 0x5f, 0x31, 
  0x5f, 0x31, 0x2f, 0x64, 0x65, 0x6e, 0x73, 0x65, 0x5f, 0x34, 0x5f, 0x31, 
  0x2f, 0x4d, 0x61, 0x74, 0x4d, 0x75, 0x6c, 0x00, 0x02, 0x00, 0x00, 0x00, 
  0x10, 0x00, 0x00, 0x00, 0x20, 0x00, 0x00, 0x00, 0xfe, 0xfe, 0xff, 0xff, 
  0x00, 0x00, 0x00, 0x01, 0x10, 0x00, 0x00, 0x00, 0x10, 0x00, 0x00, 0x00, 
  0x05, 0x00, 0x00, 0x00, 0x2c, 0x00, 0x00, 0x00, 0x58, 0xfe, 0xff, 0xff, 
  0x1f, 0x00, 0x00, 0x00, 0x73, 0x65, 0x71, 0x75, 0x65, 0x6e, 0x74, 0x69, 
  0x61, 0x6c, 0x5f, 0x31, 0x5f, 0x31, 0x2f, 0x64, 0x65, 0x6e, 0x73, 0x65, 
  0x5f, 0x35, 0x5f, 0x31, 0x2f, 0x4d, 0x61, 0x74, 0x4d, 0x75, 0x6c, 0x00, 
  0x02, 0x00, 0x00, 0x00, 0x03, 0x00, 0x00, 0x00, 0x10, 0x00, 0x00, 0x00, 
  0x4a, 0xff, 0xff, 0xff, 0x00, 0x00, 0x00, 0x01, 0x10, 0x00, 0x00, 0x00, 
  0x10, 0x00, 0x00, 0x00, 0x04, 0x00, 0x00, 0x00, 0x30, 0x00, 0x00, 0x00, 
  0xa4, 0xfe, 0xff, 0xff, 0x20, 0x00, 0x00, 0x00, 0x73, 0x65, 0x71, 0x75, 
  0x65, 0x6e, 0x74, 0x69, 0x61, 0x6c, 0x5f, 0x31, 0x5f, 0x31, 0x2f, 0x64, 
  0x65, 0x6e, 0x73, 0x65, 0x5f, 0x35, 0x5f, 0x31, 0x2f, 0x42, 0x69, 0x61, 
  0x73, 0x41, 0x64, 0x64, 0x00, 0x00, 0x00, 0x00, 0x01, 0x00, 0x00, 0x00, 
  0x03, 0x00, 0x00, 0x00, 0x96, 0xff, 0xff, 0xff, 0x00, 0x00, 0x00, 0x01, 
  0x10, 0x00, 0x00, 0x00, 0x10, 0x00, 0x00, 0x00, 0x03, 0x00, 0x00, 0x00, 
  0x4c, 0x00, 0x00, 0x00, 0xf0, 0xfe, 0xff, 0xff, 0x3e, 0x00, 0x00, 0x00, 
  0x73, 0x65, 0x71, 0x75, 0x65, 0x6e, 0x74, 0x69, 0x61, 0x6c, 0x5f, 0x31, 
  0x5f, 0x31, 0x2f, 0x64, 0x65, 0x6e, 0x73, 0x65, 0x5f, 0x34, 0x5f, 0x31, 
  0x2f, 0x52, 0x65, 0x6c, 0x75, 0x3b, 0x73, 0x65, 0x71, 0x75, 0x65, 0x6e, 
  0x74, 0x69, 0x61, 0x6c, 0x5f, 0x31, 0x5f, 0x31, 0x2f, 0x64, 0x65, 0x6e, 
  0x73, 0x65, 0x5f, 0x34, 0x5f, 0x31, 0x2f, 0x42, 0x69, 0x61, 0x73, 0x41, 
  0x64, 0x64, 0x00, 0x00, 0x01, 0x00, 0x00, 0x00, 0x10, 0x00, 0x00, 0x00, 
  0x00, 0x00, 0x16, 0x00, 0x18, 0x00, 0x14, 0x00, 0x00, 0x00, 0x10, 0x00, 
  0x0c, 0x00, 0x08, 0x00, 0x00, 0x00, 0x00, 0x00, 0x00, 0x00, 0x07, 0x00, 
  0x16, 0x00, 0x00, 0x00, 0x00, 0x00, 0x00, 0x01, 0x10, 0x00, 0x00, 0x00, 
  0x10, 0x00, 0x00, 0x00, 0x02, 0x00, 0x00, 0x00, 0x4c, 0x00, 0x00, 0x00, 
  0x70, 0xff, 0xff, 0xff, 0x3e, 0x00, 0x00, 0x00, 0x73, 0x65, 0x71, 0x75, 
  0x65, 0x6e, 0x74, 0x69, 0x61, 0x6c, 0x5f, 0x31, 0x5f, 0x31, 0x2f, 0x64, 
  0x65, 0x6e, 0x73, 0x65, 0x5f, 0x33, 0x5f, 0x31, 0x2f, 0x52, 0x65, 0x6c, 
  0x75, 0x3b, 0x73, 0x65, 0x71, 0x75, 0x65, 0x6e, 0x74, 0x69, 0x61, 0x6c, 
  0x5f, 0x31, 0x5f, 0x31, 0x2f, 0x64, 0x65, 0x6e, 0x73, 0x65, 0x5f, 0x33, 
  0x5f, 0x31, 0x2f, 0x42, 0x69, 0x61, 0x73, 0x41, 0x64, 0x64, 0x00, 0x00, 
  0x01, 0x00, 0x00, 0x00, 0x20, 0x00, 0x00, 0x00, 0x00, 0x00, 0x16, 0x00, 
  0x1c, 0x00, 0x18, 0x00, 0x00, 0x00, 0x14, 0x00, 0x10, 0x00, 0x0c, 0x00, 
  0x00, 0x00, 0x00, 0x00, 0x08, 0x00, 0x07, 0x00, 0x16, 0x00, 0x00, 0x00, 
  0x00, 0x00, 0x00, 0x01, 0x14, 0x00, 0x00, 0x00, 0x20, 0x00, 0x00, 0x00, 
  0x20, 0x00, 0x00, 0x00, 0x01, 0x00, 0x00, 0x00, 0x40, 0x00, 0x00, 0x00, 
  0x02, 0x00, 0x00, 0x00, 0xff, 0xff, 0xff, 0xff, 0x8a, 0x00, 0x00, 0x00, 
  0x04, 0x00, 0x04, 0x00, 0x04, 0x00, 0x00, 0x00, 0x20, 0x00, 0x00, 0x00, 
  0x73, 0x65, 0x72, 0x76, 0x69, 0x6e, 0x67, 0x5f, 0x64, 0x65, 0x66, 0x61, 
  0x75, 0x6c, 0x74, 0x5f, 0x6b, 0x65, 0x72, 0x61, 0x73, 0x5f, 0x74, 0x65, 
  0x6e, 0x73, 0x6f, 0x72, 0x5f, 0x36, 0x3a, 0x30, 0x00, 0x00, 0x00, 0x00, 
  0x02, 0x00, 0x00, 0x00, 0x01, 0x00, 0x00, 0x00, 0x8a, 0x00, 0x00, 0x00, 
  0x02, 0x00, 0x00, 0x00, 0x2c, 0x00, 0x00, 0x00, 0x10, 0x00, 0x00, 0x00, 
  0x0c, 0x00, 0x0c, 0x00, 0x0b, 0x00, 0x00, 0x00, 0x00, 0x00, 0x04, 0x00, 
  0x0c, 0x00, 0x00, 0x00, 0x19, 0x00, 0x00, 0x00, 0x00, 0x00, 0x00, 0x19, 
  0x0c, 0x00, 0x10, 0x00, 0x0f, 0x00, 0x00, 0x00, 0x08, 0x00, 0x04, 0x00, 
  0x0c, 0x00, 0x00, 0x00, 0x09, 0x00, 0x00, 0x00, 0x0c, 0x00, 0x00, 0x00, 
  0x00, 0x00, 0x00, 0x09, 
};

const unsigned int modele_sort_len = 9568;

#endif
